{
  "version": "1.0",
  "truncation": null,
  "padding": null,
  "added_tokens": [
    {
      "id": 0,
      "content": "<pad>",
      "single_word": false,
      "lstrip": false,
      "rstrip": false,
      "normalized": false,
      "special": true
    },
    {
      "id": 1,
      "content": "<bos>",
      "single_word": false,
      "lstrip": false,
      "rstrip": false,
      "normalized": false,
      "special": true
    },
    {
      "id": 2,
      "content": "<eos>",
      "single_word": false,
      "lstrip": false,
      "rstrip": false,
      "normalized": false,
      "special": true
    },
    {
      "id": 3,
      "content": "<unk>",
      "single_word": false,
      "lstrip": false,
      "rstrip": false,
      "normalized": false,
      "special": true
    }
  ],
  "normalizer": null,
  "pre_tokenizer": {
    "type": "Whitespace"
  },
  "post_processor": null,
  "decoder": null,
  "model": {
    "type": "BPE",
    "dropout": null,
    "unk_token": null,
    "continuing_subword_prefix": null,
    "end_of_word_suffix": null,
    "fuse_unk": false,
    "byte_fallback": false,
    "ignore_merges": false,
    "vocab": {
      "<pad>": 0,
      "<bos>": 1,
      "<eos>": 2,
      "<unk>": 3,
      "!": 4,
      "\"": 5,
      "%": 6,
      "'": 7,
      "(": 8,
      ")": 9,
      "*": 10,
      "+": 11,
      ",": 12,
      "-": 13,
      ".": 14,
      "/": 15,
      "0": 16,
      "1": 17,
      "2": 18,
      "3": 19,
      "4": 20,
      "5": 21,
      "6": 22,
      "7": 23,
      "8": 24,
      "9": 25,
      ":": 26,
      ";": 27,
      ">": 28,
      "?": 29,
      "A": 30,
      "B": 31,
      "C": 32,
      "D": 33,
      "E": 34,
      "F": 35,
      "G": 36,
      "H": 37,
      "I": 38,
      "J": 39,
      "K": 40,
      "L": 41,
      "M": 42,
      "N": 43,
      "O": 44,
      "P": 45,
      "Q": 46,
      "R": 47,
      "S": 48,
      "T": 49,
      "U": 50,
      "V": 51,
      "W": 52,
      "X": 53,
      "Y": 54,
      "Z": 55,
      "[": 56,
      "]": 57,
      "a": 58,
      "b": 59,
      "c": 60,
      "d": 61,
      "e": 62,
      "f": 63,
      "g": 64,
      "h": 65,
      "i": 66,
      "k": 67,
      "l": 68,
      "m": 69,
      "n": 70,
      "o": 71,
      "p": 72,
      "q": 73,
      "r": 74,
      "s": 75,
      "t": 76,
      "u": 77,
      "v": 78,
      "w": 79,
      "x": 80,
      "y": 81,
      "z": 82,
      "À": 83,
      "Á": 84,
      "Â": 85,
      "Ê": 86,
      "Í": 87,
      "Ó": 88,
      "Ô": 89,
      "Ý": 90,
      "à": 91,
      "á": 92,
      "â": 93,
      "ã": 94,
      "è": 95,
      "é": 96,
      "ê": 97,
      "ì": 98,
      "í": 99,
      "ò": 100,
      "ó": 101,
      "ô": 102,
      "õ": 103,
      "ù": 104,
      "ú": 105,
      "ý": 106,
      "Ă": 107,
      "ă": 108,
      "Đ": 109,
      "đ": 110,
      "ĩ": 111,
      "ũ": 112,
      "Ơ": 113,
      "ơ": 114,
      "Ư": 115,
      "ư": 116,
      "а": 117,
      "н": 118,
      "о": 119,
      "р": 120,
      "ซ": 121,
      "ạ": 122,
      "Ả": 123,
      "ả": 124,
      "Ấ": 125,
      "ấ": 126,
      "Ầ": 127,
      "ầ": 128,
      "Ẩ": 129,
      "ẩ": 130,
      "ẫ": 131,
      "Ậ": 132,
      "ậ": 133,
      "ắ": 134,
      "ằ": 135,
      "ẳ": 136,
      "ẵ": 137,
      "ặ": 138,
      "ẹ": 139,
      "ẻ": 140,
      "ẽ": 141,
      "Ế": 142,
      "ế": 143,
      "ề": 144,
      "Ể": 145,
      "ể": 146,
      "ễ": 147,
      "ệ": 148,
      "ỉ": 149,
      "ị": 150,
      "ọ": 151,
      "ỏ": 152,
      "Ố": 153,
      "ố": 154,
      "Ồ": 155,
      "ồ": 156,
      "Ổ": 157,
      "ổ": 158,
      "ỗ": 159,
      "Ộ": 160,
      "ộ": 161,
      "ớ": 162,
      "ờ": 163,
      "Ở": 164,
      "ở": 165,
      "ỡ": 166,
      "ợ": 167,
      "ụ": 168,
      "Ủ": 169,
      "ủ": 170,
      "Ứ": 171,
      "ứ": 172,
      "Ừ": 173,
      "ừ": 174,
      "ử": 175,
      "ữ": 176,
      "ự": 177,
      "ỳ": 178,
      "ỵ": 179,
      "ỷ": 180,
      "ỹ": 181,
      "–": 182,
      "‘": 183,
      "’": 184,
      "“": 185,
      "”": 186,
      "…": 187,
      "か": 188,
      "に": 189,
      "光": 190,
      "力": 191,
      "大": 192,
      "實": 193,
      "尽": 194,
      "心": 195,
      "扰": 196,
      "明": 197,
      "正": 198,
      "猜": 199,
      "確": 200,
      "耗": 201,
      "베": 202,
      "쌓": 203,
      "ng": 204,
      "nh": 205,
      "th": 206,
      "ch": 207,
      "kh": 208,
      "ình": 209,
      "là": 210,
      "ời": 211,
      "tr": 212,
      "và": 213,
      "ông": 214,
      "qu": 215,
      "cả": 216,
      "gi": 217,
      "ười": 218,
      "không": 219,
      "người": 220,
      "an": 221,
      "êu": 222,
      "mình": 223,
      "yêu": 224,
      "iệ": 225,
      "có": 226,
      "cảm": 227,
      "ph": 228,
      "ậu": 229,
      "ối": 230,
      "ấy": 231,
      "củ": 232,
      "của": 233,
      "ột": 234,
      "iế": 235,
      "ới": 236,
      "cậu": 237,
      "ất": 238,
      "quan": 239,
      "một": 240,
      "sự": 241,
      "ững": 242,
      "iề": 243,
      "ại": 244,
      "ân": 245,
      "ên": 246,
      "thấy": 247,
      "những": 248,
      "ác": 249,
      "ai": 250,
      "iều": 251,
      "ạn": 252,
      "với": 253,
      "nà": 254,
      "au": 255,
      "như": 256,
      "uy": 257,
      "lại": 258,
      "hệ": 259,
      "úc": 260,
      "ay": 261,
      "để": 262,
      "thể": 263,
      "ần": 264,
      "mối": 265,
      "iệc": 266,
      "bạn": 267,
      "ãy": 268,
      "ong": 269,
      "ải": 270,
      "cá": 271,
      "ti": 272,
      "tình": 273,
      "ản": 274,
      "iể": 275,
      "ươ": 276,
      "ương": 277,
      "về": 278,
      "nó": 279,
      "ượ": 280,
      "đó": 281,
      "làm": 282,
      "khi": 283,
      "này": 284,
      "thân": 285,
      "ơn": 286,
      "ngh": 287,
      "cách": 288,
      "họ": 289,
      "cho": 290,
      "Hãy": 291,
      "ật": 292,
      "ọng": 293,
      "trong": 294,
      "điều": 295,
      "ho": 296,
      "giác": 297,
      "từ": 298,
      "ược": 299,
      "được": 300,
      "hai": 301,
      "ết": 302,
      "thật": 303,
      "bản": 304,
      "Mình": 305,
      "chuy": 306,
      "nhau": 307,
      "nói": 308,
      "cũ": 309,
      "ận": 310,
      "ện": 311,
      "trọng": 312,
      "nhưng": 313,
      "rất": 314,
      "chuyện": 315,
      "ang": 316,
      "ành": 317,
      "ực": 318,
      "ra": 319,
      "âu": 320,
      "phải": 321,
      "iến": 322,
      "ao": 323,
      "hơn": 324,
      "nhé": 325,
      "iết": 326,
      "việc": 327,
      "tin": 328,
      "iểu": 329,
      "ia": 330,
      "ạnh": 331,
      "mà": 332,
      "ìm": 333,
      "cần": 334,
      "khó": 335,
      "òng": 336,
      "quá": 337,
      "uố": 338,
      "đang": 339,
      "hiểu": 340,
      "ỗi": 341,
      "sợ": 342,
      "ôi": 343,
      "ẫn": 344,
      "ặc": 345,
      "gian": 346,
      "tìm": 347,
      "vào": 348,
      "thương": 349,
      "khác": 350,
      "hay": 351,
      "bị": 352,
      "thời": 353,
      "ộc": 354,
      "ữa": 355,
      "ảm": 356,
      "lòng": 357,
      "lắ": 358,
      "ung": 359,
      "Việc": 360,
      "thử": 361,
      "ích": 362,
      "àng": 363,
      "xúc": 364,
      "ùng": 365,
      "khiến": 366,
      "chia": 367,
      "ỏi": 368,
      "uốn": 369,
      "nhận": 370,
      "Cảm": 371,
      "ừng": 372,
      "ội": 373,
      "đi": 374,
      "tớ": 375,
      "biết": 376,
      "ây": 377,
      "àn": 378,
      "muốn": 379,
      "ến": 380,
      "tự": 381,
      "sao": 382,
      "em": 383,
      "iện": 384,
      "vì": 385,
      "ống": 386,
      "ếu": 387,
      "hoặc": 388,
      "ằng": 389,
      "đến": 390,
      "cứ": 391,
      "Tớ": 392,
      "uộc": 393,
      "xem": 394,
      "ập": 395,
      "sẽ": 396,
      "ướ": 397,
      "đã": 398,
      "ổn": 399,
      "nhiều": 400,
      "ồi": 401,
      "cùng": 402,
      "thích": 403,
      "gì": 404,
      "cũng": 405,
      "đầ": 406,
      "ờng": 407,
      "iên": 408,
      "ắn": 409,
      "ặt": 410,
      "òn": 411,
      "đá": 412,
      "chỉ": 413,
      "ường": 414,
      "nghĩ": 415,
      "lành": 416,
      "đối": 417,
      "qua": 418,
      "ôn": 419,
      "ãi": 420,
      "âm": 421,
      "ái": 422,
      "ài": 423,
      "Cậu": 424,
      "át": 425,
      "ắc": 426,
      "tố": 427,
      "ăn": 428,
      "iê": 429,
      "ưở": 430,
      "ưởng": 431,
      "lúc": 432,
      "ước": 433,
      "kết": 434,
      "đầu": 435,
      "còn": 436,
      "đề": 437,
      "tâm": 438,
      "nào": 439,
      "ính": 440,
      "Nh": 441,
      "tổn": 442,
      "vẫn": 443,
      "ơi": 444,
      "tiế": 445,
      "nhất": 446,
      "ứng": 447,
      "ức": 448,
      "iệt": 449,
      "sẻ": 450,
      "nên": 451,
      "ạng": 452,
      "iểm": 453,
      "ặp": 454,
      "tốt": 455,
      "mới": 456,
      "ày": 457,
      "lực": 458,
      "thành": 459,
      "rồi": 460,
      "ậy": 461,
      "Cứ": 462,
      "iệu": 463,
      "cuộc": 464,
      "chính": 465,
      "ưa": 466,
      "sau": 467,
      "thực": 468,
      "lắng": 469,
      "độ": 470,
      "hội": 471,
      "vậy": 472,
      "hiện": 473,
      "đơn": 474,
      "tay": 475,
      "đáng": 476,
      "ọi": 477,
      "dễ": 478,
      "tiếp": 479,
      "đị": 480,
      "thường": 481,
      "mạnh": 482,
      "mất": 483,
      "nữa": 484,
      "sống": 485,
      "rõ": 486,
      "mạng": 487,
      "phương": 488,
      "bu": 489,
      "to": 490,
      "lắm": 491,
      "ắt": 492,
      "lời": 493,
      "biệt": 494,
      "lý": 495,
      "mở": 496,
      "dự": 497,
      "quy": 498,
      "ồn": 499,
      "hãy": 500,
      "kho": 501,
      "ắng": 502,
      "ệt": 503,
      "on": 504,
      "thế": 505,
      "bất": 506,
      "ẳng": 507,
      "bình": 508,
      "ấu": 509,
      "gia": 510,
      "úng": 511,
      "ảnh": 512,
      "thì": 513,
      "Đừng": 514,
      "giới": 515,
      "Nếu": 516,
      "iêng": 517,
      "riêng": 518,
      "thôi": 519,
      "ảng": 520,
      "en": 521,
      "dành": 522,
      "trên": 523,
      "xa": 524,
      "toàn": 525,
      "lo": 526,
      "định": 527,
      "động": 528,
      "cố": 529,
      "trò": 530,
      "ớn": 531,
      "trung": 532,
      "ảo": 533,
      "phúc": 534,
      "ục": 535,
      "bè": 536,
      "bằng": 537,
      "ấn": 538,
      "Ng": 539,
      "ổi": 540,
      "Kh": 541,
      "đâu": 542,
      "chân": 543,
      "ánh": 544,
      "Tình": 545,
      "lớn": 546,
      "mọi": 547,
      "giữ": 548,
      "điểm": 549,
      "đủ": 550,
      "chưa": 551,
      "ép": 552,
      "mỏi": 553,
      "tưởng": 554,
      "mệt": 555,
      "hoàn": 556,
      "quyết": 557,
      "đình": 558,
      "ấp": 559,
      "hạnh": 560,
      "tho": 561,
      "lu": 562,
      "gắng": 563,
      "mong": 564,
      "eo": 565,
      "nghe": 566,
      "khăn": 567,
      "thẳng": 568,
      "giải": 569,
      "tôn": 570,
      "ràng": 571,
      "tập": 572,
      "dựng": 573,
      "thứ": 574,
      "tương": 575,
      "ìn": 576,
      "Sự": 577,
      "ừa": 578,
      "gặp": 579,
      "đau": 580,
      "dù": 581,
      "xã": 582,
      "hỏi": 583,
      "ịu": 584,
      "rằng": 585,
      "ám": 586,
      "Người": 587,
      "buồn": 588,
      "út": 589,
      "nhỏ": 590,
      "lần": 591,
      "vấn": 592,
      "vu": 593,
      "do": 594,
      "tỏ": 595,
      "nối": 596,
      "đúng": 597,
      "xây": 598,
      "bên": 599,
      "áp": 600,
      "ăng": 601,
      "nhìn": 602,
      "con": 603,
      "ưng": 604,
      "phản": 605,
      "ách": 606,
      "so": 607,
      "hợ": 608,
      "chịu": 609,
      "ọn": 610,
      "iềm": 611,
      "hợp": 612,
      "thay": 613,
      "bắt": 614,
      "sâu": 615,
      "khoảng": 616,
      "Qu": 617,
      "ồng": 618,
      "thu": 619,
      "hành": 620,
      "Có": 621,
      "đôi": 622,
      "Nhưng": 623,
      "giờ": 624,
      "bỏ": 625,
      "tạ": 626,
      "theo": 627,
      "công": 628,
      "lai": 629,
      "nếu": 630,
      "trước": 631,
      "mỗi": 632,
      "nhiên": 633,
      "xứng": 634,
      "iếu": 635,
      "thắn": 636,
      "suy": 637,
      "giá": 638,
      "dần": 639,
      "vọng": 640,
      "tim": 641,
      "tại": 642,
      "inh": 643,
      "ngày": 644,
      "iệm": 645,
      "thiếu": 646,
      "ẹp": 647,
      "phát": 648,
      "lẽ": 649,
      "Th": 650,
      "hình": 651,
      "Quan": 652,
      "niềm": 653,
      "chữa": 654,
      "ặng": 655,
      "phép": 656,
      "anh": 657,
      "học": 658,
      "từng": 659,
      "mãi": 660,
      "ngo": 661,
      "mặt": 662,
      "úp": 663,
      "đẹp": 664,
      "giúp": 665,
      "tiêu": 666,
      "chấp": 667,
      "ẵn": 668,
      "sẵn": 669,
      "đều": 670,
      "sàng": 671,
      "cân": 672,
      "Đôi": 673,
      "lâu": 674,
      "gh": 675,
      "ạt": 676,
      "đổi": 677,
      "bước": 678,
      "lỗi": 679,
      "liên": 680,
      "phí": 681,
      "đây": 682,
      "Ch": 683,
      "nhắn": 684,
      "ta": 685,
      "ạc": 686,
      "Khi": 687,
      "liệu": 688,
      "iếm": 689,
      "đặt": 690,
      "Dù": 691,
      "vui": 692,
      "Gi": 693,
      "khứ": 694,
      "giữa": 695,
      "chung": 696,
      "luôn": 697,
      "cơ": 698,
      "nhân": 699,
      "trái": 700,
      "đừng": 701,
      "phía": 702,
      "độc": 703,
      "thiết": 704,
      "lên": 705,
      "dài": 706,
      "bày": 707,
      "cãi": 708,
      "ền": 709,
      "đồng": 710,
      "Yêu": 711,
      "Mối": 712,
      "ào": 713,
      "Những": 714,
      "kiếm": 715,
      "trị": 716,
      "diện": 717,
      "uyên": 718,
      "mái": 719,
      "thoải": 720,
      "Một": 721,
      "xử": 722,
      "nỗi": 723,
      "ngoài": 724,
      "chút": 725,
      "ứt": 726,
      "Điều": 727,
      "àm": 728,
      "ranh": 729,
      "iêm": 730,
      "nghiêm": 731,
      "thuẫn": 732,
      "vừa": 733,
      "lập": 734,
      "tục": 735,
      "trình": 736,
      "ăm": 737,
      "trở": 738,
      "hiệu": 739,
      "cô": 740,
      "ẩn": 741,
      "thấu": 742,
      "hưởng": 743,
      "đặc": 744,
      "mâu": 745,
      "sắc": 746,
      "vô": 747,
      "iển": 748,
      "tu": 749,
      "tạo": 750,
      "chọn": 751,
      "ngại": 752,
      "Làm": 753,
      "ầm": 754,
      "lạc": 755,
      "éo": 756,
      "ượng": 757,
      "ởi": 758,
      "êm": 759,
      "nhẹ": 760,
      "túc": 761,
      "ghen": 762,
      "bảo": 763,
      "trân": 764,
      "nhớ": 765,
      "nghĩa": 766,
      "hãi": 767,
      "Mỗi": 768,
      "vẻ": 769,
      "năng": 770,
      "cái": 771,
      "triển": 772,
      "im": 773,
      "ạch": 774,
      "iệp": 775,
      "cản": 776,
      "vệ": 777,
      "ượt": 778,
      "hết": 779,
      "sở": 780,
      "hò": 781,
      "ủi": 782,
      "lặng": 783,
      "án": 784,
      "thêm": 785,
      "rối": 786,
      "vượt": 787,
      "kiểm": 788,
      "lặp": 789,
      "trải": 790,
      "mang": 791,
      "kỹ": 792,
      "giống": 793,
      "quen": 794,
      "hy": 795,
      "đo": 796,
      "tránh": 797,
      "mờ": 798,
      "cực": 799,
      "ngay": 800,
      "dối": 801,
      "Nỗi": 802,
      "Chia": 803,
      "thuộc": 804,
      "dứt": 805,
      "sai": 806,
      "phù": 807,
      "ít": 808,
      "ắp": 809,
      "soát": 810,
      "Không": 811,
      "uống": 812,
      "Tr": 813,
      "ợi": 814,
      "dám": 815,
      "sánh": 816,
      "nhàng": 817,
      "vết": 818,
      "gây": 819,
      "ẹn": 820,
      "uất": 821,
      "thách": 822,
      "chủ": 823,
      "dấu": 824,
      "ngờ": 825,
      "khỏi": 826,
      "lượng": 827,
      "quả": 828,
      "sức": 829,
      "nghiệp": 830,
      "nhắc": 831,
      "quên": 832,
      "xé": 833,
      "Thay": 834,
      "ảy": 835,
      "mục": 836,
      "kỳ": 837,
      "nghiệm": 838,
      "só": 839,
      "câu": 840,
      "hộ": 841,
      "trách": 842,
      "lạnh": 843,
      "mập": 844,
      "ứa": 845,
      "kiên": 846,
      "Nó": 847,
      "xuyên": 848,
      "nghi": 849,
      "lừa": 850,
      "Bạn": 851,
      "tư": 852,
      "chứ": 853,
      "Sau": 854,
      "ướng": 855,
      "trí": 856,
      "giao": 857,
      "chắc": 858,
      "thúc": 859,
      "tế": 860,
      "am": 861,
      "tiến": 862,
      "giận": 863,
      "hoạch": 864,
      "kế": 865,
      "Tuy": 866,
      "đấy": 867,
      "vội": 868,
      "tranh": 869,
      "Cái": 870,
      "đời": 871,
      "nỗ": 872,
      "đầy": 873,
      "mẽ": 874,
      "dừng": 875,
      "bội": 876,
      "hướng": 877,
      "nhỉ": 878,
      "tội": 879,
      "lự": 880,
      "chất": 881,
      "bối": 882,
      "tủi": 883,
      "õi": 884,
      "vững": 885,
      "duy": 886,
      "mức": 887,
      "iền": 888,
      "giản": 889,
      "hòa": 890,
      "phần": 891,
      "tuông": 892,
      "lựa": 893,
      "day": 894,
      "hỗ": 895,
      "kỷ": 896,
      "yên": 897,
      "xét": 898,
      "gần": 899,
      "lầm": 900,
      "biến": 901,
      "trợ": 902,
      "phá": 903,
      "ộn": 904,
      "tiên": 905,
      "nha": 906,
      "lẫn": 907,
      "bao": 908,
      "đưa": 909,
      "ủng": 910,
      "đắp": 911,
      "quanh": 912,
      "minh": 913,
      "in": 914,
      "buông": 915,
      "nhặt": 916,
      "trống": 917,
      "bận": 918,
      "ậm": 919,
      "uối": 920,
      "ũng": 921,
      "nhẫn": 922,
      "các": 923,
      "Cùng": 924,
      "vun": 925,
      "trì": 926,
      "cạnh": 927,
      "xung": 928,
      "chơi": 929,
      "đánh": 930,
      "ạy": 931,
      "dựa": 932,
      "rào": 933,
      "Thử": 934,
      "hạn": 935,
      "niệm": 936,
      "ụt": 937,
      "phụ": 938,
      "nhạt": 939,
      "vàng": 940,
      "đường": 941,
      "..": 942,
      "chăm": 943,
      "thất": 944,
      "ĩnh": 945,
      "bởi": 946,
      "sóc": 947,
      "mật": 948,
      "buộc": 949,
      "yếu": 950,
      "vị": 951,
      "kéo": 952,
      "nặng": 953,
      "xuất": 954,
      "luận": 955,
      "dũng": 956,
      "ãng": 957,
      "dõi": 958,
      "hơi": 959,
      "ễn": 960,
      "nơi": 961,
      "hảo": 962,
      "Liệu": 963,
      "ạo": 964,
      "uyết": 965,
      "ói": 966,
      "iễn": 967,
      "rơi": 968,
      "òi": 969,
      "ụi": 970,
      "càng": 971,
      "tĩnh": 972,
      "xảy": 973,
      "ốc": 974,
      "đứa": 975,
      "ưu": 976,
      "chúng": 977,
      "huống": 978,
      "né": 979,
      "đòi": 980,
      "dụ": 981,
      "hồi": 982,
      "thoát": 983,
      "ngột": 984,
      "ửa": 985,
      "khổ": 986,
      "vặt": 987,
      "giảm": 988,
      "chứng": 989,
      "tức": 990,
      "vã": 991,
      "tất": 992,
      "bí": 993,
      "rộn": 994,
      "diễn": 995,
      "ằn": 996,
      "cởi": 997,
      "chắn": 998,
      "lỡ": 999,
      "bó": 1000,
      "lãng": 1001,
      "sinh": 1002,
      "tác": 1003,
      "khám": 1004,
      "gọi": 1005,
      "địa": 1006,
      "tinh": 1007,
      "Áp": 1008,
      "ín": 1009,
      "'.": 1010,
      "khả": 1011,
      "hụt": 1012,
      "ngạt": 1013,
      "dằn": 1014,
      "khắc": 1015,
      "Giờ": 1016,
      "hẫ": 1017,
      "hẫng": 1018,
      "đoán": 1019,
      "ầu": 1020,
      "Sợ": 1021,
      "bền": 1022,
      "ha": 1023,
      "trực": 1024,
      "trọn": 1025,
      "Dần": 1026,
      "bài": 1027,
      "hẹn": 1028,
      "khoăn": 1029,
      "băn": 1030,
      "thức": 1031,
      "vẹn": 1032,
      "sát": 1033,
      "ngăn": 1034,
      "cặp": 1035,
      "phổ": 1036,
      "bức": 1037,
      "Giao": 1038,
      "điện": 1039,
      "mòn": 1040,
      "đợi": 1041,
      "cảnh": 1042,
      "Ôi": 1043,
      "ớt": 1044,
      "thú": 1045,
      "đoạn": 1046,
      "ưỡ": 1047,
      "Trong": 1048,
      "tệ": 1049,
      "phức": 1050,
      "Cả": 1051,
      "thần": 1052,
      "gắn": 1053,
      "chờ": 1054,
      "khoảnh": 1055,
      "kiến": 1056,
      "quyền": 1057,
      "tạp": 1058,
      "vỡ": 1059,
      "khai": 1060,
      "cầu": 1061,
      "tích": 1062,
      "chu": 1063,
      "cam": 1064,
      "bớt": 1065,
      "gỡ": 1066,
      "khá": 1067,
      "bã": 1068,
      "ỗng": 1069,
      "mạn": 1070,
      "trả": 1071,
      "nóng": 1072,
      "dung": 1073,
      "lung": 1074,
      "Bắt": 1075,
      "ớm": 1076,
      "ấm": 1077,
      "ưỡng": 1078,
      "giấu": 1079,
      "ẹo": 1080,
      "sẹo": 1081,
      "chú": 1082,
      "quý": 1083,
      "giai": 1084,
      "ngồi": 1085,
      "trạng": 1086,
      "nguyên": 1087,
      "ìa": 1088,
      "vi": 1089,
      "đổ": 1090,
      "ằm": 1091,
      "nằm": 1092,
      "khóa": 1093,
      "hài": 1094,
      "tha": 1095,
      "đáp": 1096,
      "phân": 1097,
      "chuẩn": 1098,
      "kia": 1099,
      "tắc": 1100,
      "chẳng": 1101,
      "tảng": 1102,
      "tài": 1103,
      "Tập": 1104,
      "co": 1105,
      "Đây": 1106,
      "gánh": 1107,
      "hàng": 1108,
      "mẻ": 1109,
      "thói": 1110,
      "nản": 1111,
      "Ho": 1112,
      "tuy": 1113,
      "rỗng": 1114,
      "tới": 1115,
      "trưởng": 1116,
      "Họ": 1117,
      "lin": 1118,
      "line": 1119,
      "khí": 1120,
      "nền": 1121,
      "chìa": 1122,
      "tụi": 1123,
      "nhạy": 1124,
      "tính": 1125,
      "năm": 1126,
      "én": 1127,
      "Tìm": 1128,
      "ịch": 1129,
      "căng": 1130,
      "chuyên": 1131,
      "tuổi": 1132,
      "dàng": 1133,
      "kể": 1134,
      "áng": 1135,
      "xuống": 1136,
      "mắc": 1137,
      "khỏ": 1138,
      "dụng": 1139,
      "mẹ": 1140,
      "ngu": 1141,
      "khỏe": 1142,
      "Thích": 1143,
      "kinh": 1144,
      "online": 1145,
      "tiếng": 1146,
      "sớm": 1147,
      "dẫn": 1148,
      "hẳ": 1149,
      "đứng": 1150,
      "hẳn": 1151,
      "chiến": 1152,
      "Hoặc": 1153,
      "óa": 1154,
      "tiếc": 1155,
      "lấy": 1156,
      "bóng": 1157,
      "Đó": 1158,
      "tuyệt": 1159,
      "kiểu": 1160,
      "...": 1161,
      "thảo": 1162,
      "Ph": 1163,
      "lén": 1164,
      "khuyết": 1165,
      "',": 1166,
      "lấp": 1167,
      "chi": 1168,
      "vòng": 1169,
      "ban": 1170,
      "mơ": 1171,
      "đu": 1172,
      "viết": 1173,
      "pháp": 1174,
      "end": 1175,
      "ri": 1176,
      "riend": 1177,
      "đăng": 1178,
      "lút": 1179,
      "quay": 1180,
      "hoạt": 1181,
      ").": 1182,
      "áo": 1183,
      "coi": 1184,
      "kiệt": 1185,
      "one": 1186,
      "bạch": 1187,
      "zone": 1188,
      "tín": 1189,
      "ẹt": 1190,
      "riendzone": 1191,
      "bạc": 1192,
      "suất": 1193,
      "chối": 1194,
      "cuối": 1195,
      "phục": 1196,
      "buổi": 1197,
      "nhường": 1198,
      "chậm": 1199,
      "khéo": 1200,
      "mấy": 1201,
      "thoại": 1202,
      "ghê": 1203,
      "nảy": 1204,
      "rung": 1205,
      "vật": 1206,
      "bào": 1207,
      "ngừng": 1208,
      "ênh": 1209,
      "õng": 1210,
      "lõng": 1211,
      "Từng": 1212,
      "uốt": 1213,
      "đích": 1214,
      "tần": 1215,
      "thăm": 1216,
      "Bị": 1217,
      "Dành": 1218,
      "friendzone": 1219,
      "tạm": 1220,
      "suốt": 1221,
      "tan": 1222,
      "Phải": 1223,
      "hồn": 1224,
      "đuổi": 1225,
      "hộp": 1226,
      "mó": 1227,
      "thái": 1228,
      "ví": 1229,
      "hút": 1230,
      "chế": 1231,
      "hoảng": 1232,
      "léo": 1233,
      "thuận": 1234,
      "cửa": 1235,
      "ngoại": 1236,
      "quẩn": 1237,
      "thông": 1238,
      "tỏa": 1239,
      "deo": 1240,
      "video": 1241,
      "bố": 1242,
      "viên": 1243,
      "Khoảng": 1244,
      "lưỡng": 1245,
      "tận": 1246,
      "Biết": 1247,
      "chán": 1248,
      "gợi": 1249,
      "trẻ": 1250,
      "kẹt": 1251,
      "xác": 1252,
      "ùi": 1253,
      "trang": 1254,
      "thỏ": 1255,
      "tung": 1256,
      "ũi": 1257,
      "nhị": 1258,
      "hoài": 1259,
      "manh": 1260,
      "sắp": 1261,
      "nhiệm": 1262,
      "Vết": 1263,
      "tiền": 1264,
      "mắt": 1265,
      "tường": 1266,
      "ưới": 1267,
      "vời": 1268,
      "gũi": 1269,
      "luẩn": 1270,
      "ọt": 1271,
      "sáng": 1272,
      "vùng": 1273,
      "thiện": 1274,
      "Hạnh": 1275,
      "ký": 1276,
      "lùi": 1277,
      "ỉnh": 1278,
      "ro": 1279,
      "Tụi": 1280,
      "ốn": 1281,
      "ngọt": 1282,
      "hại": 1283,
      "bám": 1284,
      "ùa": 1285,
      "phai": 1286,
      "Để": 1287,
      "hối": 1288,
      "lợi": 1289,
      "sót": 1290,
      "Nói": 1291,
      "dạn": 1292,
      "lay": 1293,
      "đỡ": 1294,
      "hôn": 1295,
      "ngào": 1296,
      "nghỉ": 1297,
      "vài": 1298,
      "Lắng": 1299,
      "chạy": 1300,
      "íu": 1301,
      "rủi": 1302,
      "chí": 1303,
      "uôi": 1304,
      "lối": 1305,
      "thỏa": 1306,
      "phòng": 1307,
      "nhu": 1308,
      "Em": 1309,
      "lịch": 1310,
      "Quá": 1311,
      "ựng": 1312,
      "đựng": 1313,
      "nề": 1314,
      "hứa": 1315,
      "Nhìn": 1316,
      "ếp": 1317,
      "ỏng": 1318,
      "che": 1319,
      "tôi": 1320,
      "Mọi": 1321,
      "ry": 1322,
      "ửng": 1323,
      "Trái": 1324,
      "thống": 1325,
      "bây": 1326,
      "cậy": 1327,
      "Ngày": 1328,
      "mê": 1329,
      "nhanh": 1330,
      "ắm": 1331,
      "lửng": 1332,
      "ạm": 1333,
      "sto": 1334,
      "story": 1335,
      "cải": 1336,
      "nè": 1337,
      "nén": 1338,
      "dưới": 1339,
      "đóng": 1340,
      "Thấy": 1341,
      "bế": 1342,
      "ộng": 1343,
      "Đồng": 1344,
      "hào": 1345,
      "đuối": 1346,
      "dạo": 1347,
      "gốc": 1348,
      "tượng": 1349,
      "ngơi": 1350,
      "nuôi": 1351,
      "ọc": 1352,
      "nhung": 1353,
      "màn": 1354,
      "vắng": 1355,
      "lửa": 1356,
      "Hai": 1357,
      "Quyết": 1358,
      "níu": 1359,
      "lùng": 1360,
      "tồn": 1361,
      "xếp": 1362,
      "cuốn": 1363,
      "hứng": 1364,
      "nguồn": 1365,
      "đậm": 1366,
      "hóa": 1367,
      "cắt": 1368,
      "số": 1369,
      "ngữ": 1370,
      "đeo": 1371,
      "uyền": 1372,
      "Mạng": 1373,
      "tỵ": 1374,
      "nhiệt": 1375,
      "ba": 1376,
      "ngắn": 1377,
      "nước": 1378,
      "Thời": 1379,
      "đam": 1380,
      "Ai": 1381,
      "Muốn": 1382,
      "cẩn": 1383,
      "Cho": 1384,
      "xấu": 1385,
      "bọn": 1386,
      "lơ": 1387,
      "trời": 1388,
      "phiền": 1389,
      "ngốc": 1390,
      "Giống": 1391,
      "dịu": 1392,
      "lộ": 1393,
      "mô": 1394,
      "hàn": 1395,
      "phiên": 1396,
      "tốc": 1397,
      "đáo": 1398,
      "gó": 1399,
      "ngôn": 1400,
      "chỗ": 1401,
      "ặn": 1402,
      "phim": 1403,
      "tầm": 1404,
      "ụp": 1405,
      "thậm": 1406,
      "ru": 1407,
      "đảm": 1408,
      "già": 1409,
      "Bày": 1410,
      "nuối": 1411,
      "xin": 1412,
      "uyến": 1413,
      "chỉnh": 1414,
      "Gia": 1415,
      "cớ": 1416,
      "lạ": 1417,
      "liền": 1418,
      "giằng": 1419,
      "hiệp": 1420,
      "non": 1421,
      "thả": 1422,
      "èm": 1423,
      "liệt": 1424,
      "thầm": 1425,
      "hoay": 1426,
      "dè": 1427,
      "đắn": 1428,
      "ển": 1429,
      "loay": 1430,
      "Và": 1431,
      "Đặt": 1432,
      "kìm": 1433,
      "cụ": 1434,
      "can": 1435,
      "dây": 1436,
      "tụ": 1437,
      "chuyển": 1438,
      "mã": 1439,
      "vương": 1440,
      "Đến": 1441,
      "Lúc": 1442,
      "hiểm": 1443,
      "hề": 1444,
      "óng": 1445,
      "ếm": 1446,
      "nhàm": 1447,
      "bộ": 1448,
      "xo": 1449,
      "giỏi": 1450,
      "cánh": 1451,
      "Ngh": 1452,
      "vân": 1453,
      "chìm": 1454,
      "hen": 1455,
      "rời": 1456,
      "kín": 1457,
      "rút": 1458,
      "hỏng": 1459,
      "nứt": 1460,
      "ém": 1461,
      "ớp": 1462,
      "quán": 1463,
      "nổi": 1464,
      "kèm": 1465,
      "đột": 1466,
      "đớn": 1467,
      "hấp": 1468,
      "Như": 1469,
      "xóa": 1470,
      "ịp": 1471,
      "Mệt": 1472,
      "sh": 1473,
      "kém": 1474,
      "Nghe": 1475,
      "trường": 1476,
      "rễ": 1477,
      "tồi": 1478,
      "ôm": 1479,
      "sang": 1480,
      "chừng": 1481,
      "tị": 1482,
      "hâm": 1483,
      "văn": 1484,
      "iêu": 1485,
      "chênh": 1486,
      "dường": 1487,
      "hậu": 1488,
      "Ghen": 1489,
      "đón": 1490,
      "gồng": 1491,
      "khích": 1492,
      "sốc": 1493,
      "Niềm": 1494,
      "món": 1495,
      "cấm": 1496,
      "khuyên": 1497,
      "xinh": 1498,
      "nhịn": 1499,
      "tên": 1500,
      "giếm": 1501,
      "rạn": 1502,
      "giáo": 1503,
      "ca": 1504,
      "xong": 1505,
      "ẫm": 1506,
      "ngã": 1507,
      "móc": 1508,
      "rush": 1509,
      "quản": 1510,
      "phán": 1511,
      "bề": 1512,
      "tử": 1513,
      "mò": 1514,
      "Chữa": 1515,
      "cao": 1516,
      "Giữ": 1517,
      "Trước": 1518,
      "Từ": 1519,
      "thính": 1520,
      "cười": 1521,
      "thở": 1522,
      "tham": 1523,
      "đùa": 1524,
      "nghị": 1525,
      "crush": 1526,
      "nan": 1527,
      "mát": 1528,
      "khủng": 1529,
      "Chỉ": 1530,
      "kịch": 1531,
      "chiều": 1532,
      "đương": 1533,
      "nhấn": 1534,
      "hận": 1535,
      "Tha": 1536,
      "hạ": 1537,
      "ửi": 1538,
      "tối": 1539,
      "vụ": 1540,
      "giả": 1541,
      "Rồi": 1542,
      "Xây": 1543,
      "sụp": 1544,
      "uôn": 1545,
      "nhật": 1546,
      "quà": 1547,
      "lớp": 1548,
      "tỉnh": 1549,
      "Dạo": 1550,
      "gửi": 1551,
      "thấp": 1552,
      "nắng": 1553,
      "miền": 1554,
      "thoảng": 1555,
      "Hy": 1556,
      "Sao": 1557,
      "cốt": 1558,
      "Tự": 1559,
      "dỗi": 1560,
      "khía": 1561,
      "nhở": 1562,
      "lõi": 1563,
      "song": 1564,
      "Tin": 1565,
      "bại": 1566,
      "han": 1567,
      "Học": 1568,
      "thủ": 1569,
      "trích": 1570,
      "báo": 1571,
      "),": 1572,
      "Kiểu": 1573,
      "dữ": 1574,
      "ll": 1575,
      "cử": 1576,
      "áy": 1577,
      "đồ": 1578,
      "Hay": 1579,
      "nội": 1580,
      "khóc": 1581,
      "lộn": 1582,
      "call": 1583,
      "đẽ": 1584,
      "biểu": 1585,
      "bé": 1586,
      "bời": 1587,
      "bật": 1588,
      "ồm": 1589,
      "gồm": 1590,
      "khuyến": 1591,
      "nguy": 1592,
      "nét": 1593,
      "túng": 1594,
      "đại": 1595,
      "Ban": 1596,
      "danh": 1597,
      "tiềm": 1598,
      "ếch": 1599,
      "ma": 1600,
      "táo": 1601,
      "xưa": 1602,
      "ngùng": 1603,
      "trầm": 1604,
      "nghếch": 1605,
      "thắt": 1606,
      "Anh": 1607,
      "đứt": 1608,
      "tra": 1609,
      "hoang": 1610,
      "dò": 1611,
      "soi": 1612,
      "linh": 1613,
      "Giải": 1614,
      "Nhiều": 1615,
      "mạo": 1616,
      "điệu": 1617,
      "thổ": 1618,
      "Lần": 1619,
      "cú": 1620,
      "vai": 1621,
      "đạt": 1622,
      "đạo": 1623,
      "hờ": 1624,
      "lảng": 1625,
      "xu": 1626,
      "ghi": 1627,
      "Trò": 1628,
      "dồn": 1629,
      "đọc": 1630,
      "Nhớ": 1631,
      "trao": 1632,
      "Còn": 1633,
      "nồng": 1634,
      "cận": 1635,
      "thận": 1636,
      "Mâu": 1637,
      "dùng": 1638,
      "tốn": 1639,
      "sta": 1640,
      "tiết": 1641,
      "khoát": 1642,
      "lưng": 1643,
      "dục": 1644,
      "đức": 1645,
      "thờ": 1646,
      "Lòng": 1647,
      "thỉnh": 1648,
      "tò": 1649,
      "ẩy": 1650,
      "lao": 1651,
      "chạnh": 1652,
      "góp": 1653,
      "Bọn": 1654,
      "Tổn": 1655,
      "ngủ": 1656,
      "thoái": 1657,
      "sử": 1658,
      "àu": 1659,
      "li": 1660,
      "đắm": 1661,
      "sợi": 1662,
      "Hành": 1663,
      "mù": 1664,
      "ngược": 1665,
      "nhói": 1666,
      "đấu": 1667,
      "đẩy": 1668,
      "chặt": 1669,
      "lệ": 1670,
      "tàu": 1671,
      "tả": 1672,
      "cất": 1673,
      "siêu": 1674,
      "ngây": 1675,
      "thơ": 1676,
      "cụt": 1677,
      "đè": 1678,
      "thao": 1679,
      "hao": 1680,
      "âng": 1681,
      "mông": 1682,
      "chấm": 1683,
      "ke": 1684,
      "mãnh": 1685,
      "gượng": 1686,
      "hã": 1687,
      "gìn": 1688,
      "Vừa": 1689,
      "dịp": 1690,
      "thưa": 1691,
      "vốn": 1692,
      "Cố": 1693,
      "thi": 1694,
      "Lời": 1695,
      "thuyết": 1696,
      "Bu": 1697,
      "mách": 1698,
      "xoa": 1699,
      "dạng": 1700,
      "thua": 1701,
      "truyền": 1702,
      "phối": 1703,
      "phạm": 1704,
      "ượn": 1705,
      "ngần": 1706,
      "dưỡng": 1707,
      "nhát": 1708,
      "chạm": 1709,
      "uyện": 1710,
      "dao": 1711,
      "lượn": 1712,
      "ẫu": 1713,
      "”.": 1714,
      "khách": 1715,
      "góc": 1716,
      "sửa": 1717,
      "nhà": 1718,
      "băng": 1719,
      "mẫu": 1720,
      "ol": 1721,
      "đa": 1722,
      "Ranh": 1723,
      "dạy": 1724,
      "say": 1725,
      "ẩm": 1726,
      "ck": 1727,
      "dậy": 1728,
      "khen": 1729,
      "trốn": 1730,
      "cộng": 1731,
      "cỏi": 1732,
      "Rất": 1733,
      "lương": 1734,
      "trai": 1735,
      "nhịp": 1736,
      "dẫm": 1737,
      "sách": 1738,
      "phóng": 1739,
      "lệch": 1740,
      "phó": 1741,
      "Giá": 1742,
      "Luôn": 1743,
      "lưu": 1744,
      "bênh": 1745,
      "toán": 1746,
      "...).": 1747,
      "tăng": 1748,
      "thư": 1749,
      "Cân": 1750,
      "gớm": 1751,
      "hững": 1752,
      "ãn": 1753,
      "đêm": 1754,
      "bàn": 1755,
      "mải": 1756,
      "Đối": 1757,
      "low": 1758,
      "Đơn": 1759,
      "thốn": 1760,
      "cay": 1761,
      "fol": 1762,
      "vác": 1763,
      "vênh": 1764,
      "follow": 1765,
      "bấp": 1766,
      "ấc": 1767,
      "thủy": 1768,
      "phong": 1769,
      "nhập": 1770,
      "like": 1771,
      "nghiệt": 1772,
      "xao": 1773,
      "thăng": 1774,
      "Đã": 1775,
      "Này": 1776,
      "un": 1777,
      "quáng": 1778,
      "rộng": 1779,
      "Vẫn": 1780,
      "môi": 1781,
      "Nên": 1782,
      "Tiền": 1783,
      "kịp": 1784,
      "thiệu": 1785,
      "mớ": 1786,
      "nay": 1787,
      "vứt": 1788,
      "dội": 1789,
      "ngưỡng": 1790,
      "phẩm": 1791,
      "xâm": 1792,
      "gạt": 1793,
      "thắng": 1794,
      "chín": 1795,
      "cứu": 1796,
      "Thật": 1797,
      "hời": 1798,
      "ve": 1799,
      "hợt": 1800,
      "gió": 1801,
      "Khó": 1802,
      "gam": 1803,
      "hẹp": 1804,
      "tắt": 1805,
      "chóng": 1806,
      "giang": 1807,
      "Dũng": 1808,
      "trận": 1809,
      "vực": 1810,
      "đằng": 1811,
      "màu": 1812,
      "hít": 1813,
      "xanh": 1814,
      "Sức": 1815,
      "Tao": 1816,
      "Chấp": 1817,
      "vơi": 1818,
      "thiệp": 1819,
      "Hiểu": 1820,
      "ngõ": 1821,
      "Trải": 1822,
      "xói": 1823,
      "gắt": 1824,
      "nguôi": 1825,
      "Rằng": 1826,
      "rắc": 1827,
      "giấc": 1828,
      "đèn": 1829,
      "game": 1830,
      "chết": 1831,
      "Nhận": 1832,
      "hão": 1833,
      "trêu": 1834,
      "rảnh": 1835,
      "vờ": 1836,
      "úi": 1837,
      "cháy": 1838,
      "phật": 1839,
      "Thế": 1840,
      "huyền": 1841,
      "liều": 1842,
      "khe": 1843,
      "iếc": 1844,
      "lẻ": 1845,
      "lấn": 1846,
      "khắt": 1847,
      "Cãi": 1848,
      "dọ": 1849,
      "mói": 1850,
      "vãn": 1851,
      "dọa": 1852,
      "unfollow": 1853,
      "Kết": 1854,
      "bộc": 1855,
      "ún": 1856,
      "ẫy": 1857,
      "chặn": 1858,
      "ove": 1859,
      "Thảo": 1860,
      "Cách": 1861,
      "Bây": 1862,
      "tái": 1863,
      "óm": 1864,
      "đập": 1865,
      "ốt": 1866,
      "dưng": 1867,
      "tán": 1868,
      "cơn": 1869,
      "đẳng": 1870,
      "mộ": 1871,
      "ngẫm": 1872,
      "?”.": 1873,
      "nở": 1874,
      "khẳng": 1875,
      "kiệm": 1876,
      "mộng": 1877,
      "thước": 1878,
      "quặn": 1879,
      "du": 1880,
      "nhóm": 1881,
      "chiếc": 1882,
      "Tranh": 1883,
      "bổ": 1884,
      "Lý": 1885,
      "vò": 1886,
      "nhờ": 1887,
      "mày": 1888,
      "gạo": 1889,
      "chê": 1890,
      "vụn": 1891,
      "Hỏi": 1892,
      "Im": 1893,
      "õm": 1894,
      "nhõm": 1895,
      "mặc": 1896,
      "hồ": 1897,
      "cây": 1898,
      "kiện": 1899,
      "nhạc": 1900,
      "ngoai": 1901,
      "hát": 1902,
      "re": 1903,
      "ẽo": 1904,
      "nhẽo": 1905,
      "hoãn": 1906,
      "tus": 1907,
      "status": 1908,
      "bê": 1909,
      "bỗng": 1910,
      "rãi": 1911,
      "trấn": 1912,
      "nguội": 1913,
      "dòng": 1914,
      "mừng": 1915,
      "nhãng": 1916,
      "thị": 1917,
      "tuần": 1918,
      "phú": 1919,
      "lứa": 1920,
      "Đau": 1921,
      "Buông": 1922,
      "Cần": 1923,
      "Xem": 1924,
      "gái": 1925,
      "Giai": 1926,
      "Chúng": 1927,
      "víu": 1928,
      "múi": 1929,
      "ụng": 1930,
      "Bố": 1931,
      "bấy": 1932,
      "sừng": 1933,
      "giục": 1934,
      "ướt": 1935,
      "cắm": 1936,
      "ngủi": 1937,
      "khép": 1938,
      "Chuyện": 1939,
      "ưỡi": 1940,
      "lưỡi": 1941,
      "move": 1942,
      "chụp": 1943,
      "đua": 1944,
      "hiển": 1945,
      "ủy": 1946,
      "trông": 1947,
      "phố": 1948,
      "Ngại": 1949,
      "lướt": 1950,
      "giấy": 1951,
      "lui": 1952,
      "hủy": 1953,
      "of": 1954,
      "tặng": 1955,
      "ụy": 1956,
      "Mất": 1957,
      "bai": 1958,
      "kiềm": 1959,
      "lọc": 1960,
      "Độc": 1961,
      "trộn": 1962,
      "ngọn": 1963,
      "thừa": 1964,
      "lượt": 1965,
      "sút": 1966,
      "chồng": 1967,
      "bâng": 1968,
      "chiếm": 1969,
      "iếp": 1970,
      "ươi": 1971,
      "nghẹt": 1972,
      "cấp": 1973,
      "rủ": 1974,
      "off": 1975,
      "lụy": 1976,
      "vấp": 1977,
      "khơi": 1978,
      "hoa": 1979,
      "dọn": 1980,
      "tươi": 1981,
      "chăng": 1982,
      "le": 1983,
      "vơ": 1984,
      "ét": 1985,
      "Càng": 1986,
      "Vấn": 1987,
      "phận": 1988,
      "mực": 1989,
      "oán": 1990,
      "mưa": 1991,
      "nửa": 1992,
      "xáo": 1993,
      "quơ": 1994,
      "giết": 1995,
      "triệt": 1996,
      "hỗn": 1997,
      "Kinh": 1998,
      "phủ": 1999,
      "cường": 2000,
      "gương": 2001,
      "ngắt": 2002,
      "tháng": 2003,
      "khởi": 2004,
      "bầu": 2005,
      "da": 2006,
      "khuất": 2007,
      "lock": 2008,
      "...'": 2009,
      "bù": 2010,
      "ly": 2011,
      "tật": 2012,
      "xe": 2013,
      "giày": 2014,
      "Cuộc": 2015,
      "gấp": 2016,
      "nỡ": 2017,
      "Đúng": 2018,
      "Chiến": 2019,
      "\".": 2020,
      "block": 2021,
      "hi": 2022,
      "lờ": 2023,
      "tù": 2024,
      "khu": 2025,
      "khuôn": 2026,
      "phơi": 2027,
      "tion": 2028,
      "bóp": 2029,
      "Lên": 2030,
      "Tần": 2031,
      "hiếm": 2032,
      "trôi": 2033,
      "chông": 2034,
      "sóng": 2035,
      "Vì": 2036,
      "cạn": 2037,
      "uồng": 2038,
      "lún": 2039,
      "bão": 2040,
      "mãn": 2041,
      "xoay": 2042,
      "vỏ": 2043,
      "quãng": 2044,
      "phút": 2045,
      "hos": 2046,
      "Khác": 2047,
      "Tra": 2048,
      "bồn": 2049,
      "tẻ": 2050,
      "chồn": 2051,
      "đám": 2052,
      "độn": 2053,
      "Thiếu": 2054,
      "Trao": 2055,
      "cập": 2056,
      "dẹp": 2057,
      "hằng": 2058,
      "tao": 2059,
      "nghiện": 2060,
      "Dõi": 2061,
      "ngỏ": 2062,
      "cướ": 2063,
      "dậm": 2064,
      "ghim": 2065,
      "cướp": 2066,
      "vẽ": 2067,
      "ộm": 2068,
      "Bất": 2069,
      "Sống": 2070,
      "nhiêu": 2071,
      "check": 2072,
      "Buồn": 2073,
      "xen": 2074,
      "trộm": 2075,
      "bữa": 2076,
      "gay": 2077,
      "sung": 2078,
      "Hoàn": 2079,
      "duyên": 2080,
      "sứt": 2081,
      "đặn": 2082,
      "ghos": 2083,
      "chào": 2084,
      "thoáng": 2085,
      "thỏm": 2086,
      "bụng": 2087,
      "dị": 2088,
      "Ít": 2089,
      "chuyến": 2090,
      "Mở": 2091,
      "diếm": 2092,
      "tùy": 2093,
      "bo": 2094,
      "bẫy": 2095,
      "miễn": 2096,
      "nắm": 2097,
      "tí": 2098,
      "vướng": 2099,
      "nho": 2100,
      "dặt": 2101,
      "nút": 2102,
      "đỗi": 2103,
      "Lén": 2104,
      "ùn": 2105,
      "chùn": 2106,
      "Ngo": 2107,
      "hồng": 2108,
      "la": 2109,
      "tải": 2110,
      "Gần": 2111,
      "Tạm": 2112,
      "mây": 2113,
      "mốc": 2114,
      "đe": 2115,
      "khái": 2116,
      "thanh": 2117,
      "khúc": 2118,
      "khoe": 2119,
      "stal": 2120,
      "mu": 2121,
      "trặc": 2122,
      "trục": 2123,
      "dĩ": 2124,
      "xíu": 2125,
      "chúc": 2126,
      "Thành": 2127,
      "mến": 2128,
      "muối": 2129,
      "str": 2130,
      "vợ": 2131,
      "chọc": 2132,
      "tri": 2133,
      "giọng": 2134,
      "lăng": 2135,
      "nghệ": 2136,
      "ting": 2137,
      "hờn": 2138,
      "cư": 2139,
      "cuồng": 2140,
      "mề": 2141,
      "thiu": 2142,
      "mềm": 2143,
      "cột": 2144,
      "cung": 2145,
      "ởn": 2146,
      "xoáy": 2147,
      "Dường": 2148,
      "Tạo": 2149,
      "dai": 2150,
      "tựa": 2151,
      "Chứng": 2152,
      "dẳng": 2153,
      "mm": 2154,
      "thuyền": 2155,
      "nhượ": 2156,
      "loại": 2157,
      "Khuyến": 2158,
      "Thường": 2159,
      "hãm": 2160,
      "hiếu": 2161,
      "sạn": 2162,
      "ui": 2163,
      "đông": 2164,
      "trói": 2165,
      "\",": 2166,
      "bùng": 2167,
      "hữ": 2168,
      "kính": 2169,
      "nạ": 2170,
      "Nhấn": 2171,
      "hữu": 2172,
      "Chọ": 2173,
      "luyện": 2174,
      "vạch": 2175,
      "Chọn": 2176,
      "rè": 2177,
      "thuố": 2178,
      "cáu": 2179,
      "thuốc": 2180,
      "lĩnh": 2181,
      "sỏi": 2182,
      "ĩu": 2183,
      "nhút": 2184,
      "thiểu": 2185,
      "trĩu": 2186,
      "Mập": 2187,
      "gò": 2188,
      "hổ": 2189,
      "hôm": 2190,
      "òa": 2191,
      "Tôi": 2192,
      "Xung": 2193,
      "nấu": 2194,
      "xát": 2195,
      "thắp": 2196,
      "găm": 2197,
      "vây": 2198,
      "Đứng": 2199,
      "treo": 2200,
      "cứa": 2201,
      "Lo": 2202,
      "Mục": 2203,
      "bi": 2204,
      "lăn": 2205,
      "Ừm": 2206,
      "nhòa": 2207,
      "phỏng": 2208,
      "củng": 2209,
      "hạt": 2210,
      "uẩn": 2211,
      "đất": 2212,
      "hoàng": 2213,
      "cứng": 2214,
      "Chuẩn": 2215,
      "Ngoại": 2216,
      "Bài": 2217,
      "huy": 2218,
      "sếp": 2219,
      "tàn": 2220,
      "tăn": 2221,
      "xuôi": 2222,
      "đồn": 2223,
      "đào": 2224,
      "Mày": 2225,
      "lôi": 2226,
      "su": 2227,
      "èo": 2228,
      "ơm": 2229,
      "ỡn": 2230,
      "khôn": 2231,
      "giỡn": 2232,
      "Chúc": 2233,
      "bạo": 2234,
      "dày": 2235,
      "lưới": 2236,
      "tấm": 2237,
      "ão": 2238,
      "nhầm": 2239,
      "tưới": 2240,
      "hước": 2241,
      "mỏng": 2242,
      "đâm": 2243,
      "thiệt": 2244,
      "chừ": 2245,
      "phô": 2246,
      "khoản": 2247,
      "ac": 2248,
      "kích": 2249,
      "óc": 2250,
      "Đề": 2251,
      "ngợi": 2252,
      "offline": 2253,
      "Rối": 2254,
      "Ví": 2255,
      "dập": 2256,
      "nớp": 2257,
      "nơm": 2258,
      "chần": 2259,
      "khát": 2260,
      "Bước": 2261,
      "Vòng": 2262,
      "ót": 2263,
      "chữ": 2264,
      "chương": 2265,
      "nghề": 2266,
      "luật": 2267,
      "lễ": 2268,
      "rỗi": 2269,
      "xích": 2270,
      "thản": 2271,
      "Xa": 2272,
      "bậ": 2273,
      "hả": 2274,
      "miên": 2275,
      "rẫy": 2276,
      "trỗi": 2277,
      "nguyện": 2278,
      "ghosting": 2279,
      "bậc": 2280,
      "Mạnh": 2281,
      "Suy": 2282,
      "Vẻ": 2283,
      "gặ": 2284,
      "áu": 2285,
      "nhấm": 2286,
      "chai": 2287,
      "khiếp": 2288,
      "gặm": 2289,
      "gáo": 2290,
      "hầu": 2291,
      "luyến": 2292,
      "môn": 2293,
      "rẽ": 2294,
      "Đi": 2295,
      "phũ": 2296,
      "phớt": 2297,
      "khuấy": 2298,
      "Bảo": 2299,
      "Friendzone": 2300,
      "Ui": 2301,
      "bọc": 2302,
      "dỗ": 2303,
      "não": 2304,
      "đắt": 2305,
      "thà": 2306,
      "khao": 2307,
      "luồng": 2308,
      "biện": 2309,
      "cai": 2310,
      "lá": 2311,
      "tox": 2312,
      "ghép": 2313,
      "Gợi": 2314,
      "Rõ": 2315,
      "nụ": 2316,
      "sương": 2317,
      "xôi": 2318,
      "nàn": 2319,
      "Nhắn": 2320,
      "Tiếp": 2321,
      "cược": 2322,
      "viễn": 2323,
      "Nhắc": 2324,
      "loạn": 2325,
      "ngoan": 2326,
      "tuyến": 2327,
      "...)": 2328,
      "Công": 2329,
      "Tại": 2330,
      "dâng": 2331,
      "tát": 2332,
      "Đang": 2333,
      "loi": 2334,
      "suông": 2335,
      "nâng": 2336,
      "xạ": 2337,
      "ngoặt": 2338,
      "Duy": 2339,
      "bủ": 2340,
      "hễ": 2341,
      "rứt": 2342,
      "vế": 2343,
      "đống": 2344,
      "chứa": 2345,
      "trừ": 2346,
      "phàng": 2347,
      "Trung": 2348,
      "Phân": 2349,
      "muộn": 2350,
      "bứt": 2351,
      "hằn": 2352,
      "lồng": 2353,
      "rụt": 2354,
      "chuỗi": 2355,
      "cưới": 2356,
      "de": 2357,
      "ty": 2358,
      "tước": 2359,
      "vũ": 2360,
      "nhún": 2361,
      "trắng": 2362,
      "Tương": 2363,
      "lường": 2364,
      "sập": 2365,
      "Ôm": 2366,
      "đành": 2367,
      "tựu": 2368,
      "ent": 2369,
      "trợn": 2370,
      "run": 2371,
      "Tho": 2372,
      "dra": 2373,
      "dáng": 2374,
      "es": 2375,
      "gõ": 2376,
      "huyết": 2377,
      "ợt": 2378,
      "giã": 2379,
      "ghét": 2380,
      "bủa": 2381,
      "drama": 2382,
      "fla": 2383,
      "lẩn": 2384,
      "ption": 2385,
      "èn": 2386,
      "đà": 2387,
      "đắng": 2388,
      "tháo": 2389,
      "giãn": 2390,
      "nhượng": 2391,
      "flag": 2392,
      "Mặc": 2393,
      "Về": 2394,
      "cầm": 2395,
      "lép": 2396,
      "sho": 2397,
      "tiện": 2398,
      "tấn": 2399,
      "tụt": 2400,
      "khiển": 2401,
      "quê": 2402,
      "pha": 2403,
      "phàn": 2404,
      "cáo": 2405,
      "Thoát": 2406,
      "bờ": 2407,
      "istr": 2408,
      "mỉ": 2409,
      "ngang": 2410,
      "hoại": 2411,
      "emistr": 2412,
      "thuật": 2413,
      "caption": 2414,
      "red": 2415,
      "stalk": 2416,
      "emistry": 2417,
      "mị": 2418,
      "miệ": 2419,
      "mảnh": 2420,
      "ựa": 2421,
      "ngầm": 2422,
      "Quên": 2423,
      "Chắc": 2424,
      "comm": 2425,
      "ker": 2426,
      "ace": 2427,
      "miệng": 2428,
      "Kỷ": 2429,
      "Vui": 2430,
      "hé": 2431,
      "hèn": 2432,
      "vẳng": 2433,
      "văng": 2434,
      "vĩnh": 2435,
      "ngưng": 2436,
      "khô": 2437,
      "trút": 2438,
      "nhoáng": 2439,
      "Kiên": 2440,
      "Sẽ": 2441,
      "diết": 2442,
      "gai": 2443,
      "ic": 2444,
      "lủ": 2445,
      "lánh": 2446,
      "xám": 2447,
      "đếm": 2448,
      "ệnh": 2449,
      "thổi": 2450,
      "chèo": 2451,
      "mịt": 2452,
      "lủn": 2453,
      "bến": 2454,
      "cộc": 2455,
      "lốc": 2456,
      "ok": 2457,
      "sét": 2458,
      "chemistry": 2459,
      "khung": 2460,
      "nữ": 2461,
      "nát": 2462,
      "tổ": 2463,
      "chặng": 2464,
      "phiêu": 2465,
      "comment": 2466,
      "Face": 2467,
      "Kể": 2468,
      "Mong": 2469,
      "gu": 2470,
      "trào": 2471,
      "gieo": 2472,
      "book": 2473,
      "show": 2474,
      "Lỗi": 2475,
      "căn": 2476,
      "may": 2477,
      "tứ": 2478,
      "đảo": 2479,
      "loa": 2480,
      "Thỉnh": 2481,
      "stag": 2482,
      "Quyền": 2483,
      "ap": 2484,
      "dốc": 2485,
      "gọn": 2486,
      "len": 2487,
      "lỏng": 2488,
      "lởn": 2489,
      "mặn": 2490,
      "vởn": 2491,
      "ầy": 2492,
      "ngôi": 2493,
      "tia": 2494,
      "giam": 2495,
      "Facebook": 2496,
      "Ba": 2497,
      "In": 2498,
      "tách": 2499,
      "chức": 2500,
      "ram": 2501,
      "stagram": 2502,
      "ip": 2503,
      "lỏi": 2504,
      "mai": 2505,
      "san": 2506,
      "sạch": 2507,
      "tô": 2508,
      "chững": 2509,
      "trưng": 2510,
      "Ngược": 2511,
      "Theo": 2512,
      "stalker": 2513,
      "toxic": 2514,
      "app": 2515,
      "Hình": 2516,
      "Hơi": 2517,
      "bách": 2518,
      "cài": 2519,
      "kê": 2520,
      "rú": 2521,
      "rìa": 2522,
      "tắm": 2523,
      "đọng": 2524,
      "nhốt": 2525,
      "chật": 2526,
      "trớ": 2527,
      "...'.": 2528,
      "ship": 2529,
      "tionship": 2530,
      "Instagram": 2531,
      "Ha": 2532,
      "ing": 2533,
      "nổ": 2534,
      "đỏ": 2535,
      "đỗ": 2536,
      "ỏa": 2537,
      "chảy": 2538,
      "trương": 2539,
      "ruột": 2540,
      "ess": 2541,
      "rúm": 2542,
      "Haha": 2543,
      "?'": 2544,
      "Bao": 2545,
      "mắn": 2546,
      "rác": 2547,
      "chốt": 2548,
      "Ngồi": 2549,
      "giàu": 2550,
      "Kẻ": 2551,
      "Viết": 2552,
      "bồi": 2553,
      "cổ": 2554,
      "dính": 2555,
      "gối": 2556,
      "kẻ": 2557,
      "rỡ": 2558,
      "chăn": 2559,
      "chợt": 2560,
      "trắc": 2561,
      "Các": 2562,
      "Dựa": 2563,
      "Hạn": 2564,
      "bay": 2565,
      "máu": 2566,
      "va": 2567,
      "vỗ": 2568,
      "đen": 2569,
      "chen": 2570,
      "quốc": 2571,
      "tui": 2572,
      "tuệ": 2573,
      "sốt": 2574,
      "bad": 2575,
      "vụng": 2576,
      "stress": 2577,
      "nạp": 2578,
      "Gặp": 2579,
      "Tủi": 2580,
      "bong": 2581,
      "cục": 2582,
      "sạc": 2583,
      "ùm": 2584,
      "đong": 2585,
      "Ừa": 2586,
      "khắp": 2587,
      "trá": 2588,
      "tròn": 2589,
      "phê": 2590,
      "đáu": 2591,
      "đền": 2592,
      "...),": 2593,
      "Phản": 2594,
      "?'.": 2595,
      "Con": 2596,
      "Day": 2597,
      "Hít": 2598,
      "bấm": 2599,
      "vẩn": 2600,
      "xót": 2601,
      "đụng": 2602,
      "Ơi": 2603,
      "ạp": 2604,
      "thèm": 2605,
      "chống": 2606,
      "khan": 2607,
      "khăng": 2608,
      "phi": 2609,
      "Nhất": 2610,
      "thuở": 2611,
      "Chìa": 2612,
      "ghost": 2613,
      "Câu": 2614,
      "Hôn": 2615,
      "Tui": 2616,
      "bực": 2617,
      "lúng": 2618,
      "mác": 2619,
      "neo": 2620,
      "st": 2621,
      "ngắm": 2622,
      "thù": 2623,
      "thình": 2624,
      "thịch": 2625,
      "khảo": 2626,
      "trồng": 2627,
      "bỏng": 2628,
      "Thiết": 2629,
      "Phát": 2630,
      "mỉm": 2631,
      "Kiểm": 2632,
      "Rút": 2633,
      "Tết": 2634,
      "kim": 2635,
      "lủi": 2636,
      "mầm": 2637,
      "rũ": 2638,
      "xuyến": 2639,
      "ẳm": 2640,
      "ngóng": 2641,
      "thẳm": 2642,
      "trăng": 2643,
      "quyến": 2644,
      "Cô": 2645,
      "bợ": 2646,
      "gán": 2647,
      "hỏa": 2648,
      "se": 2649,
      "nhức": 2650,
      "nhảy": 2651,
      "chùng": 2652,
      "gián": 2653,
      "Thà": 2654,
      "Giúp": 2655,
      "rela": 2656,
      "nhược": 2657,
      "relationship": 2658,
      "Dấu": 2659,
      "So": 2660,
      "bới": 2661,
      "bác": 2662,
      "lố": 2663,
      "lẳng": 2664,
      "lóc": 2665,
      "mích": 2666,
      "Ài": 2667,
      "úa": 2668,
      "Được": 2669,
      "đàn": 2670,
      "thủi": 2671,
      "giậm": 2672,
      "phạt": 2673,
      "cám": 2674,
      "cát": 2675,
      "nghẹn": 2676,
      "Chăm": 2677,
      "đoạt": 2678,
      "'?": 2679,
      "('": 2680,
      "Rơi": 2681,
      "Wo": 2682,
      "bơ": 2683,
      "bòng": 2684,
      "cưỡng": 2685,
      "vở": 2686,
      "ngon": 2687,
      "nhằng": 2688,
      "thùng": 2689,
      "chảnh": 2690,
      "thuần": 2691,
      "bóc": 2692,
      "Hồi": 2693,
      "Say": 2694,
      "di": 2695,
      "gập": 2696,
      "mũi": 2697,
      "núi": 2698,
      "ren": 2699,
      "sĩ": 2700,
      "Ướ": 2701,
      "ềnh": 2702,
      "nhụt": 2703,
      "thớt": 2704,
      "chị": 2705,
      "khán": 2706,
      "hệt": 2707,
      "điên": 2708,
      "Khám": 2709,
      "ghềnh": 2710,
      "Giấu": 2711,
      "Tránh": 2712,
      "cửu": 2713,
      "xua": 2714,
      "xuân": 2715,
      "Ước": 2716,
      "Lập": 2717,
      "Xã": 2718,
      "cà": 2719,
      "fi": 2720,
      "gác": 2721,
      "leo": 2722,
      "lạm": 2723,
      "mời": 2724,
      "náy": 2725,
      "vông": 2726,
      "Đưa": 2727,
      "thang": 2728,
      "Thực": 2729,
      "Giữa": 2730,
      "boy": 2731,
      "Wow": 2732,
      "Hmm": 2733,
      "Là": 2734,
      "Lỡ": 2735,
      "diệu": 2736,
      "gạch": 2737,
      "rỉ": 2738,
      "rượ": 2739,
      "rạng": 2740,
      "sáo": 2741,
      "tăm": 2742,
      "Ối": 2743,
      "nhối": 2744,
      "thiền": 2745,
      "trau": 2746,
      "10": 2747,
      "báu": 2748,
      "friend": 2749,
      "lặn": 2750,
      "lóng": 2751,
      "nam": 2752,
      "rl": 2753,
      "rệt": 2754,
      "ốm": 2755,
      "ờn": 2756,
      "ợn": 2757,
      "ngượng": 2758,
      "thòi": 2759,
      "thầy": 2760,
      "chôn": 2761,
      "giành": 2762,
      "girl": 2763,
      "Thể": 2764,
      "BT": 2765,
      "Dùng": 2766,
      "GBT": 2767,
      "Ký": 2768,
      "LGBT": 2769,
      "Tận": 2770,
      "Tim": 2771,
      "ar": 2772,
      "dở": 2773,
      "dấy": 2774,
      "dán": 2775,
      "kênh": 2776,
      "lặt": 2777,
      "lái": 2778,
      "riết": 2779,
      "si": 2780,
      "sân": 2781,
      "sướng": 2782,
      "tai": 2783,
      "viển": 2784,
      "đậy": 2785,
      "than": 2786,
      "thừng": 2787,
      "quệ": 2788,
      "Quay": 2789,
      "tua": 2790,
      "Tâm": 2791,
      "ga": 2792,
      "mệnh": 2793,
      "po": 2794,
      "suôn": 2795,
      "te": 2796,
      "tột": 2797,
      "vư": 2798,
      "ngộ": 2799,
      "chim": 2800,
      "tuân": 2801,
      "chuộng": 2802,
      "nhoi": 2803,
      "vườn": 2804,
      "50": 2805,
      "Bức": 2806,
      "Ghi": 2807,
      "Rung": 2808,
      "Sử": 2809,
      "bồ": 2810,
      "biển": 2811,
      "bệnh": 2812,
      "cạ": 2813,
      "guồng": 2814,
      "lây": 2815,
      "năn": 2816,
      "sệt": 2817,
      "chiếu": 2818,
      "chạp": 2819,
      "khuy": 2820,
      "trệ": 2821,
      "trùm": 2822,
      "rèn": 2823,
      "huyễn": 2824,
      "lốp": 2825,
      "khuya": 2826,
      "Tôn": 2827,
      "bông": 2828,
      "bướng": 2829,
      "gợn": 2830,
      "lận": 2831,
      "mỹ": 2832,
      "op": 2833,
      "đốt": 2834,
      "ễu": 2835,
      "nhủ": 2836,
      "chốn": 2837,
      "khư": 2838,
      "khấu": 2839,
      "khớp": 2840,
      "trừng": 2841,
      "trứng": 2842,
      "Chính": 2843,
      "xoắn": 2844,
      "típ": 2845,
      "open": 2846,
      "Crush": 2847,
      "Tốc": 2848,
      "canh": 2849,
      "dưa": 2850,
      "dắt": 2851,
      "hức": 2852,
      "kẽ": 2853,
      "kẹp": 2854,
      "mùi": 2855,
      "rốt": 2856,
      "tơ": 2857,
      "vá": 2858,
      "vả": 2859,
      "ngơ": 2860,
      "ngành": 2861,
      "thụ": 2862,
      "thin": 2863,
      "phe": 2864,
      "phiếm": 2865,
      "đãng": 2866,
      "Nghĩ": 2867,
      "...')": 2868,
      "dea": 2869,
      "Dừng": 2870,
      "Tín": 2871,
      "cành": 2872,
      "cưng": 2873,
      "cắp": 2874,
      "gục": 2875,
      "héo": 2876,
      "háo": 2877,
      "kỉ": 2878,
      "king": 2879,
      "rười": 2880,
      "sa": 2881,
      "sổ": 2882,
      "vớ": 2883,
      "Ám": 2884,
      "Ưu": 2885,
      "ngớ": 2886,
      "ngẩn": 2887,
      "nhăng": 2888,
      "then": 2889,
      "trùng": 2890,
      "tràn": 2891,
      "cán": 2892,
      "...',": 2893,
      "Ngoài": 2894,
      "detox": 2895,
      "rượi": 2896,
      "Cơ": 2897,
      "Cuối": 2898,
      "Linh": 2899,
      "Tu": 2900,
      "dang": 2901,
      "he": 2902,
      "lật": 2903,
      "rthin": 2904,
      "vang": 2905,
      "yam": 2906,
      "ýp": 2907,
      "đao": 2908,
      "đội": 2909,
      "ẩu": 2910,
      "nhen": 2911,
      "loanh": 2912,
      "Thái": 2913,
      "Giảm": 2914,
      "cơm": 2915,
      "tuýp": 2916,
      "ngủn": 2917,
      "olyam": 2918,
      "Tuổi": 2919,
      "olyamo": 2920,
      "An": 2921,
      "Bối": 2922,
      "Bên": 2923,
      "Hụt": 2924,
      "Luyện": 2925,
      "Né": 2926,
      "biên": 2927,
      "búa": 2928,
      "dạ": 2929,
      "er": 2930,
      "man": 2931,
      "polyamo": 2932,
      "rinh": 2933,
      "Đầu": 2934,
      "đận": 2935,
      "cha": 2936,
      "quỹ": 2937,
      "hoi": 2938,
      "Trực": 2939,
      "lẻo": 2940,
      "overthin": 2941,
      "100": 2942,
      ")?": 2943,
      "Co": 2944,
      "Cắt": 2945,
      "dư": 2946,
      "gói": 2947,
      "lẫm": 2948,
      "vùi": 2949,
      "Đảm": 2950,
      "đàng": 2951,
      "ngó": 2952,
      "lẽo": 2953,
      "Chờ": 2954,
      "vãnh": 2955,
      "bom": 2956,
      "mua": 2957,
      "post": 2958,
      "polyamory": 2959,
      "overthinking": 2960,
      "Cẩn": 2961,
      "Lâu": 2962,
      "bụi": 2963,
      "bốc": 2964,
      "bỉnh": 2965,
      "gan": 2966,
      "kìa": 2967,
      "lột": 2968,
      "mo": 2969,
      "rạch": 2970,
      "ròi": 2971,
      "sến": 2972,
      "săn": 2973,
      "tắp": 2974,
      "up": 2975,
      "xiề": 2976,
      "Đặc": 2977,
      "nhắm": 2978,
      "thiên": 2979,
      "chuốt": 2980,
      "trăn": 2981,
      "giám": 2982,
      "phẳng": 2983,
      "chuông": 2984,
      "...\"": 2985,
      "Khóc": 2986,
      "xiềng": 2987,
      "Lấy": 2988,
      "Tiến": 2989,
      "cờ": 2990,
      "cấn": 2991,
      "dịch": 2992,
      "lở": 2993,
      "lát": 2994,
      "rộ": 2995,
      "sẩm": 2996,
      "war": 2997,
      "Đăng": 2998,
      "đạc": 2999,
      "ngân": 3000,
      "trụ": 3001,
      "đềm": 3002,
      "Khái": 3003,
      "Tuyệt": 3004,
      "Phụ": 3005,
      "He": 3006,
      "kệ": 3007,
      "kén": 3008,
      "máy": 3009,
      "pro": 3010,
      "vất": 3011,
      "viện": 3012,
      "đan": 3013,
      "ẻo": 3014,
      "ngực": 3015,
      "thon": 3016,
      "chẽ": 3017,
      "giường": 3018,
      "iếng": 3019,
      "rathon": 3020,
      "Khiến": 3021,
      "Chà": 3022,
      "kháng": 3023,
      "marathon": 3024,
      "rea": 3025,
      "reac": 3026,
      "Dọn": 3027,
      "Dằn": 3028,
      "Tiếc": 3029,
      "Xóa": 3030,
      "aw": 3031,
      "bồng": 3032,
      "go": 3033,
      "kwar": 3034,
      "lằn": 3035,
      "sông": 3036,
      "sôi": 3037,
      "ts": 3038,
      "điển": 3039,
      "ngỡ": 3040,
      "nhằn": 3041,
      "thâu": 3042,
      "thảm": 3043,
      "châm": 3044,
      "chót": 3045,
      "giễu": 3046,
      "phấn": 3047,
      "cáp": 3048,
      "Thương": 3049,
      "Thao": 3050,
      "tuột": 3051,
      "khỏa": 3052,
      "unfriend": 3053,
      "...').": 3054,
      "mỉa": 3055,
      "file": 3056,
      "Hehe": 3057,
      "profile": 3058,
      "awkwar": 3059,
      "awkward": 3060,
      "')": 3061,
      "24": 3062,
      "Hối": 3063,
      "Mấy": 3064,
      "To": 3065,
      "Vượt": 3066,
      "Xong": 3067,
      "bể": 3068,
      "bập": 3069,
      "cấu": 3070,
      "cào": 3071,
      "dồi": 3072,
      "dline": 3073,
      "long": 3074,
      "lục": 3075,
      "mẫn": 3076,
      "mạch": 3077,
      "sin": 3078,
      "xưng": 3079,
      "óp": 3080,
      "đài": 3081,
      "đỉnh": 3082,
      "Ảnh": 3083,
      "ngàn": 3084,
      "nguyền": 3085,
      "khẩu": 3086,
      "trễ": 3087,
      "Nhu": 3088,
      "Nhường": 3089,
      "khoang": 3090,
      "Thống": 3091,
      "Thẳng": 3092,
      "Chào": 3093,
      "Giận": 3094,
      "Aiz": 3095,
      "tổng": 3096,
      "ngộp": 3097,
      "deadline": 3098,
      "Bộ": 3099,
      "Can": 3100,
      "Lựa": 3101,
      "Mẹ": 3102,
      "Mắc": 3103,
      "Nuôi": 3104,
      "Tan": 3105,
      "Tốt": 3106,
      "bộn": 3107,
      "bén": 3108,
      "cong": 3109,
      "cồn": 3110,
      "ham": 3111,
      "lan": 3112,
      "nạn": 3113,
      "rình": 3114,
      "xả": 3115,
      "xước": 3116,
      "nhỡ": 3117,
      "chinh": 3118,
      "chốc": 3119,
      "khiếu": 3120,
      "trúc": 3121,
      "trót": 3122,
      "giảng": 3123,
      "luân": 3124,
      "Quản": 3125,
      "Giấc": 3126,
      "hiu": 3127,
      "'/": 3128,
      "?',": 3129,
      "Biến": 3130,
      "Bóng": 3131,
      "Góp": 3132,
      "Kỳ": 3133,
      "Lịch": 3134,
      "Mơ": 3135,
      "Rào": 3136,
      "Rốt": 3137,
      "al": 3138,
      "by": 3139,
      "brea": 3140,
      "ep": 3141,
      "hòn": 3142,
      "kè": 3143,
      "kỵ": 3144,
      "kép": 3145,
      "keo": 3146,
      "lười": 3147,
      "méo": 3148,
      "nọ": 3149,
      "nợ": 3150,
      "nấc": 3151,
      "nẻo": 3152,
      "od": 3153,
      "pin": 3154,
      "rực": 3155,
      "tàng": 3156,
      "tóc": 3157,
      "vo": 3158,
      "vận": 3159,
      "wi": 3160,
      "ngầu": 3161,
      "thẩm": 3162,
      "trơn": 3163,
      "triền": 3164,
      "phanh": 3165,
      "hot": 3166,
      "Chú": 3167,
      "tag": 3168,
      "chat": 3169,
      "Coi": 3170,
      "Toàn": 3171,
      "'/'": 3172,
      "15": 3173,
      "Bằng": 3174,
      "Hàn": 3175,
      "Mức": 3176,
      "Nam": 3177,
      "Sở": 3178,
      "Sẵn": 3179,
      "Tăng": 3180,
      "Việt": 3181,
      "ag": 3182,
      "bặt": 3183,
      "bby": 3184,
      "cu": 3185,
      "cạm": 3186,
      "cợt": 3187,
      "gãy": 3188,
      "hích": 3189,
      "lách": 3190,
      "lam": 3191,
      "miết": 3192,
      "muôn": 3193,
      "ni": 3194,
      "nấy": 3195,
      "nong": 3196,
      "nuốt": 3197,
      "nếm": 3198,
      "rầm": 3199,
      "săm": 3200,
      "tang": 3201,
      "vảy": 3202,
      "Đánh": 3203,
      "đem": 3204,
      "đắc": 3205,
      "ũa": 3206,
      "thắc": 3207,
      "thưởng": 3208,
      "chì": 3209,
      "trưa": 3210,
      "nghèo": 3211,
      "hobby": 3212,
      "đoàn": 3213,
      "móng": 3214,
      "bổng": 3215,
      "deep": 3216,
      "stalking": 3217,
      "LGBTQ": 3218,
      "mood": 3219,
      "Bình": 3220,
      "Ghos": 3221,
      "Hôm": 3222,
      "Minh": 3223,
      "Níu": 3224,
      "Nắm": 3225,
      "ben": 3226,
      "bánh": 3227,
      "cưa": 3228,
      "cằn": 3229,
      "dãi": 3230,
      "efi": 3231,
      "fe": 3232,
      "gông": 3233,
      "mòng": 3234,
      "nớt": 3235,
      "oan": 3236,
      "rt": 3237,
      "xộn": 3238,
      "đòn": 3239,
      "đấm": 3240,
      "đạp": 3241,
      "ẵng": 3242,
      "ngập": 3243,
      "tráng": 3244,
      "hoành": 3245,
      "Nhẹ": 3246,
      "Quen": 3247,
      "tạt": 3248,
      "Chẳng": 3249,
      "Trân": 3250,
      "with": 3251,
      "niu": 3252,
      "Ghosting": 3253,
      "benefi": 3254,
      "benefits": 3255,
      "30": 3256,
      "?).": 3257,
      "Bạo": 3258,
      "Cất": 3259,
      "Cảnh": 3260,
      "Dẫn": 3261,
      "Gốc": 3262,
      "Gửi": 3263,
      "Hàng": 3264,
      "Hẹn": 3265,
      "Lấp": 3266,
      "Mà": 3267,
      "Mô": 3268,
      "Mới": 3269,
      "Miễn": 3270,
      "Não": 3271,
      "Sắp": 3272,
      "Tỉnh": 3273,
      "Với": 3274,
      "bột": 3275,
      "bẩn": 3276,
      "cặn": 3277,
      "gãi": 3278,
      "hư": 3279,
      "hở": 3280,
      "lỗ": 3281,
      "lẹt": 3282,
      "ou": 3283,
      "oga": 3284,
      "siết": 3285,
      "sưa": 3286,
      "tờ": 3287,
      "tít": 3288,
      "xới": 3289,
      "yoga": 3290,
      "Động": 3291,
      "đính": 3292,
      "đẹt": 3293,
      "ệch": 3294,
      "ngổn": 3295,
      "ngòi": 3296,
      "nhi": 3297,
      "nhãn": 3298,
      "chồi": 3299,
      "chánh": 3300,
      "chệch": 3301,
      "quấy": 3302,
      "quân": 3303,
      "quét": 3304,
      "giây": 3305,
      "phái": 3306,
      "khiên": 3307,
      "Ngu": 3308,
      "ghém": 3309,
      "Chênh": 3310,
      "tal": 3311,
      "cool": 3312,
      "vel": 3313,
      "vờn": 3314,
      "level": 3315,
      "est": 3316,
      "situa": 3317,
      "gom": 3318,
      "situationship": 3319,
      "').": 3320,
      "Cam": 3321,
      "Dạy": 3322,
      "Kéo": 3323,
      "Năng": 3324,
      "Rủi": 3325,
      "Tính": 3326,
      "Tắt": 3327,
      "bỉ": 3328,
      "bỡ": 3329,
      "bơi": 3330,
      "cắn": 3331,
      "căm": 3332,
      "cùm": 3333,
      "hương": 3334,
      "is": 3335,
      "lũ": 3336,
      "lề": 3337,
      "mỏ": 3338,
      "mon": 3339,
      "mạc": 3340,
      "ogam": 3341,
      "rã": 3342,
      "rửa": 3343,
      "tầ": 3344,
      "test": 3345,
      "vặn": 3346,
      "xẹt": 3347,
      "Đâu": 3348,
      "Đêm": 3349,
      "Đam": 3350,
      "Đọc": 3351,
      "đũa": 3352,
      "ẽn": 3353,
      "chao": 3354,
      "khiếm": 3355,
      "trăm": 3356,
      "tréo": 3357,
      "quần": 3358,
      "giãi": 3359,
      "giáp": 3360,
      "phấp": 3361,
      "đói": 3362,
      "nghịch": 3363,
      "nghẽn": 3364,
      "họng": 3365,
      "đáy": 3366,
      "toát": 3367,
      "Ngay": 3368,
      "Thói": 3369,
      "Thỏa": 3370,
      "ngoe": 3371,
      "Chủ": 3372,
      "Giới": 3373,
      "Trách": 3374,
      "vịt": 3375,
      "ling": 3376,
      "khuây": 3377,
      "muồi": 3378,
      "mute": 3379,
      "deal": 3380,
      "react": 3381,
      "reaction": 3382,
      "breaker": 3383,
      "monogam": 3384,
      "tầng": 3385,
      "monogamy": 3386,
      "Ah": 3387,
      "Cú": 3388,
      "Cơn": 3389,
      "Cởi": 3390,
      "Dễ": 3391,
      "Hỗ": 3392,
      "Lại": 3393,
      "Lãng": 3394,
      "Lụy": 3395,
      "Mang": 3396,
      "Nỗ": 3397,
      "Nảy": 3398,
      "Rủ": 3399,
      "Rời": 3400,
      "Sáng": 3401,
      "Tiêu": 3402,
      "Vùng": 3403,
      "bàng": 3404,
      "bãi": 3405,
      "cẩm": 3406,
      "ed": 3407,
      "gọt": 3408,
      "lì": 3409,
      "lanh": 3410,
      "lầy": 3411,
      "nần": 3412,
      "ròng": 3413,
      "rừng": 3414,
      "sư": 3415,
      "sắm": 3416,
      "tèo": 3417,
      "vánh": 3418,
      "ván": 3419,
      "vợi": 3420,
      "wo": 3421,
      "xị": 3422,
      "xăm": 3423,
      "yếm": 3424,
      "Ày": 3425,
      "Đị": 3426,
      "Độ": 3427,
      "đễ": 3428,
      "ngô": 3429,
      "ngẫu": 3430,
      "nhổ": 3431,
      "thải": 3432,
      "thằng": 3433,
      "thám": 3434,
      "chiết": 3435,
      "chửng": 3436,
      "trú": 3437,
      "trề": 3438,
      "truyện": 3439,
      "quật": 3440,
      "giọt": 3441,
      "gital": 3442,
      "phiến": 3443,
      "nghiêng": 3444,
      "họp": 3445,
      "Nhạy": 3446,
      "toan": 3447,
      "toạc": 3448,
      "khoét": 3449,
      "thoa": 3450,
      "Qua": 3451,
      "giáng": 3452,
      "time": 3453,
      "Thậm": 3454,
      "Chậm": 3455,
      "nhẹm": 3456,
      "Trả": 3457,
      "Trên": 3458,
      "Trưởng": 3459,
      "Trạng": 3460,
      "coup": 3461,
      "rou": 3462,
      "Aish": 3463,
      "cation": 3464,
      "bềnh": 3465,
      "đẽo": 3466,
      "ligh": 3467,
      "key": 3468,
      "khuâng": 3469,
      "digital": 3470,
      "rượu": 3471,
      "Comm": 3472,
      "Aizz": 3473,
      "out": 3474,
      "Nguồn": 3475,
      "Định": 3476,
      "đễnh": 3477,
      "couple": 3478,
      "\"?": 3479,
      "(\"": 3480,
      "+.": 3481,
      ",...": 3482,
      "?)": 3483,
      "?\".": 3484,
      "Bế": 3485,
      "Bận": 3486,
      "F5": 3487,
      "Gọi": 3488,
      "Nước": 3489,
      "Sai": 3490,
      "Tất": 3491,
      "Tay": 3492,
      "Tài": 3493,
      "Vứt": 3494,
      "Xác": 3495,
      "bà": 3496,
      "bẩy": 3497,
      "biếng": 3498,
      "ce": 3499,
      "dàn": 3500,
      "et": 3501,
      "fru": 3502,
      "gg": 3503,
      "gật": 3504,
      "hố": 3505,
      "hỡ": 3506,
      "hẵng": 3507,
      "ication": 3508,
      "lể": 3509,
      "lâng": 3510,
      "me": 3511,
      "mạ": 3512,
      "mau": 3513,
      "mấu": 3514,
      "nao": 3515,
      "rô": 3516,
      "rắn": 3517,
      "rụng": 3518,
      "rót": 3519,
      "sp": 3520,
      "sản": 3521,
      "sắt": 3522,
      "tết": 3523,
      "tùng": 3524,
      "tẩu": 3525,
      "uag": 3526,
      "vồ": 3527,
      "vạn": 3528,
      "vập": 3529,
      "vắt": 3530,
      "vảng": 3531,
      "vầy": 3532,
      "xí": 3533,
      "xài": 3534,
      "xóm": 3535,
      "Ái": 3536,
      "Đám": 3537,
      "đệ": 3538,
      "đàm": 3539,
      "đợt": 3540,
      "Ấy": 3541,
      "ễm": 3542,
      "ợp": 3543,
      "’.": 3544,
      "ngứa": 3545,
      "ngợp": 3546,
      "nhàu": 3547,
      "thốt": 3548,
      "chà": 3549,
      "chới": 3550,
      "chãi": 3551,
      "chấn": 3552,
      "chớm": 3553,
      "trữ": 3554,
      "quấn": 3555,
      "uyển": 3556,
      "đểu": 3557,
      "đóa": 3558,
      "anguag": 3559,
      "tine": 3560,
      "đãi": 3561,
      "Nhờ": 3562,
      "toang": 3563,
      "Ngôn": 3564,
      "Khả": 3565,
      "Thả": 3566,
      "Thất": 3567,
      "Chặng": 3568,
      "Chấm": 3569,
      "Chuyển": 3570,
      "ném": 3571,
      "chui": 3572,
      "...\".": 3573,
      "chiêu": 3574,
      "tòa": 3575,
      "lity": 3576,
      "liễu": 3577,
      "Buổi": 3578,
      "unication": 3579,
      "trigg": 3580,
      "hổng": 3581,
      "friends": 3582,
      "team": 3583,
      "nhiễm": 3584,
      "lũy": 3585,
      "routine": 3586,
      "Communication": 3587,
      "hỡi": 3588,
      "đệm": 3589,
      "trigger": 3590,
      ",...)": 3591,
      "AT": 3592,
      "Bí": 3593,
      "Băn": 3594,
      "CÓ": 3595,
      "Dứt": 3596,
      "HỂ": 3597,
      "Kẹt": 3598,
      "Lương": 3599,
      "Liệt": 3600,
      "Move": 3601,
      "Tỏ": 3602,
      "THỂ": 3603,
      "Un": 3604,
      "Za": 3605,
      "aling": 3606,
      "bở": 3607,
      "bắn": 3608,
      "bát": 3609,
      "bầm": 3610,
      "bán": 3611,
      "bói": 3612,
      "ct": 3613,
      "cau": 3614,
      "cuống": 3615,
      "diệt": 3616,
      "dửng": 3617,
      "fli": 3618,
      "face": 3619,
      "gột": 3620,
      "ganh": 3621,
      "gro": 3622,
      "gắm": 3623,
      "hét": 3624,
      "kiêm": 3625,
      "kiêu": 3626,
      "ksho": 3627,
      "lồ": 3628,
      "lược": 3629,
      "lụi": 3630,
      "mìn": 3631,
      "mượn": 3632,
      "mèo": 3633,
      "nương": 3634,
      "nắn": 3635,
      "núng": 3636,
      "ray": 3637,
      "rập": 3638,
      "rắm": 3639,
      "rầy": 3640,
      "rksho": 3641,
      "sầm": 3642,
      "sụt": 3643,
      "sligh": 3644,
      "tiệc": 3645,
      "tấp": 3646,
      "ul": 3647,
      "vố": 3648,
      "vách": 3649,
      "vụt": 3650,
      "xỉ": 3651,
      "Đất": 3652,
      "đậu": 3653,
      "đật": 3654,
      "điếng": 3655,
      "Ảo": 3656,
      "thãi": 3657,
      "chả": 3658,
      "chở": 3659,
      "chát": 3660,
      "khẽ": 3661,
      "khôi": 3662,
      "trà": 3663,
      "triệu": 3664,
      "trạm": 3665,
      "vàn": 3666,
      "quẻ": 3667,
      "quây": 3668,
      "phao": 3669,
      "phen": 3670,
      "củi": 3671,
      "khiêm": 3672,
      "nghìn": 3673,
      "lắp": 3674,
      "chỉn": 3675,
      "tiếu": 3676,
      "khoáng": 3677,
      "love": 3678,
      "Nguyên": 3679,
      "Tham": 3680,
      "phím": 3681,
      "Chặn": 3682,
      "Giả": 3683,
      "Giọng": 3684,
      "trịch": 3685,
      "Trời": 3686,
      "Trống": 3687,
      "khổng": 3688,
      "quýt": 3689,
      "come": 3690,
      "Hoang": 3691,
      "Đóng": 3692,
      "Phá": 3693,
      "Nghi": 3694,
      "rep": 3695,
      "rese": 3696,
      "flags": 3697,
      "seen": 3698,
      "sist": 3699,
      "gasligh": 3700,
      "ngón": 3701,
      "Aiza": 3702,
      "worksho": 3703,
      "xịn": 3704,
      "Unfollow": 3705,
      "Zalo": 3706,
      "flirt": 3707,
      "reset": 3708,
      "gaslighting": 3709,
      "workshop": 3710,
      "%,": 3711,
      "%.": 3712,
      ".\"": 3713,
      ".'": 3714,
      ".).": 3715,
      "?\"": 3716,
      "Bản": 3717,
      "Cắm": 3718,
      "Diễn": 3719,
      "FW": 3720,
      "Lửa": 3721,
      "Nè": 3722,
      "Nêu": 3723,
      "Non": 3724,
      "Nền": 3725,
      "On": 3726,
      "Vi": 3727,
      "Vậy": 3728,
      "Vào": 3729,
      "Xu": 3730,
      "Xuất": 3731,
      "Yếu": 3732,
      "bung": 3733,
      "bừa": 3734,
      "bắp": 3735,
      "bụp": 3736,
      "bẩm": 3737,
      "cỡ": 3738,
      "cúng": 3739,
      "cru": 3740,
      "dìm": 3741,
      "dượt": 3742,
      "dầu": 3743,
      "dặn": 3744,
      "dcru": 3745,
      "ew": 3746,
      "era": 3747,
      "fan": 3748,
      "ful": 3749,
      "gà": 3750,
      "gàng": 3751,
      "hu": 3752,
      "hùng": 3753,
      "ig": 3754,
      "it": 3755,
      "icon": 3756,
      "kề": 3757,
      "kỉnh": 3758,
      "kiếp": 3759,
      "ld": 3760,
      "ló": 3761,
      "lông": 3762,
      "lộc": 3763,
      "lữa": 3764,
      "lằng": 3765,
      "liêng": 3766,
      "luống": 3767,
      "men": 3768,
      "mùa": 3769,
      "mọc": 3770,
      "mbi": 3771,
      "ment": 3772,
      "múa": 3773,
      "no": 3774,
      "nết": 3775,
      "nốt": 3776,
      "pu": 3777,
      "rùng": 3778,
      "răng": 3779,
      "rớt": 3780,
      "rẩy": 3781,
      "tê": 3782,
      "tì": 3783,
      "tuyết": 3784,
      "tịch": 3785,
      "xang": 3786,
      "xốn": 3787,
      "ía": 3788,
      "ýt": 3789,
      "Đắn": 3790,
      "Đoán": 3791,
      "đơ": 3792,
      "đồi": 3793,
      "đẵng": 3794,
      "ểu": 3795,
      "Ổn": 3796,
      "ngất": 3797,
      "ngạo": 3798,
      "ngốn": 3799,
      "nhan": 3800,
      "nhuố": 3801,
      "nhấp": 3802,
      "nhọn": 3803,
      "thề": 3804,
      "thỉ": 3805,
      "thiêng": 3806,
      "thấm": 3807,
      "thía": 3808,
      "chó": 3809,
      "chàng": 3810,
      "chớp": 3811,
      "truy": 3812,
      "trội": 3813,
      "trằn": 3814,
      "trọc": 3815,
      "quang": 3816,
      "quắt": 3817,
      "giỏ": 3818,
      "giông": 3819,
      "giật": 3820,
      "phập": 3821,
      "phốt": 3822,
      "ail": 3823,
      "tiểu": 3824,
      "mài": 3825,
      "toái": 3826,
      "cốc": 3827,
      "bèo": 3828,
      "Nguy": 3829,
      "Khẳng": 3830,
      "Thổ": 3831,
      "Thông": 3832,
      "Thừa": 3833,
      "ghé": 3834,
      "Chất": 3835,
      "Chân": 3836,
      "Chụp": 3837,
      "Chemistry": 3838,
      "đoan": 3839,
      "Trốn": 3840,
      "inse": 3841,
      "view": 3842,
      "cold": 3843,
      "chit": 3844,
      "đồm": 3845,
      "bét": 3846,
      "stating": 3847,
      "list": 3848,
      "rủn": 3849,
      "dating": 3850,
      "date": 3851,
      "bility": 3852,
      "sum": 3853,
      "bủn": 3854,
      "commit": 3855,
      "ice": 3856,
      "sex": 3857,
      "ark": 3858,
      "ter": 3859,
      "healing": 3860,
      "update": 3861,
      "...\")": 3862,
      "breadcru": 3863,
      "voi": 3864,
      "voice": 3865,
      "cua": 3866,
      "cure": 3867,
      "frustating": 3868,
      "spark": 3869,
      "anguages": 3870,
      "ATM": 3871,
      "FWB": 3872,
      "Online": 3873,
      "Video": 3874,
      "hurt": 3875,
      "lóe": 3876,
      "mbing": 3877,
      "nhuốm": 3878,
      "insecure": 3879,
      "breadcrumbing": 3880,
      "!'": 3881,
      "!”": 3882,
      "!”.": 3883,
      "':": 3884,
      "->": 3885,
      "Aw": 3886,
      "Block": 3887,
      "Cải": 3888,
      "Dỗ": 3889,
      "Hi": 3890,
      "Hâm": 3891,
      "Hầu": 3892,
      "Lặp": 3893,
      "Lặng": 3894,
      "Love": 3895,
      "Lướt": 3896,
      "Languages": 3897,
      "Mỉ": 3898,
      "Mời": 3899,
      "Mấu": 3900,
      "Mạo": 3901,
      "Nụ": 3902,
      "Nản": 3903,
      "Pan": 3904,
      "Tù": 3905,
      "Tái": 3906,
      "Xin": 3907,
      "at": 3908,
      "area": 3909,
      "be": 3910,
      "bướ": 3911,
      "bro": 3912,
      "dy": 3913,
      "dỡ": 3914,
      "dạt": 3915,
      "dằm": 3916,
      "dca": 3917,
      "dle": 3918,
      "dẻo": 3919,
      "ffi": 3920,
      "gù": 3921,
      "gang": 3922,
      "gre": 3923,
      "hầm": 3924,
      "kì": 3925,
      "kĩ": 3926,
      "kêu": 3927,
      "kin": 3928,
      "kẹo": 3929,
      "lững": 3930,
      "lúp": 3931,
      "lìa": 3932,
      "lênh": 3933,
      "lọt": 3934,
      "mại": 3935,
      "miệt": 3936,
      "miếng": 3937,
      "nông": 3938,
      "nới": 3939,
      "nại": 3940,
      "om": 3941,
      "play": 3942,
      "rải": 3943,
      "rành": 3944,
      "rách": 3945,
      "rma": 3946,
      "rơm": 3947,
      "sò": 3948,
      "sưở": 3949,
      "sha": 3950,
      "tá": 3951,
      "tú": 3952,
      "tý": 3953,
      "tỉ": 3954,
      "tở": 3955,
      "tông": 3956,
      "tám": 3957,
      "táp": 3958,
      "tấc": 3959,
      "tle": 3960,
      "vươ": 3961,
      "váp": 3962,
      "vũng": 3963,
      "vẫy": 3964,
      "xù": 3965,
      "xỏ": 3966,
      "xướng": 3967,
      "xòa": 3968,
      "zz": 3969,
      "zag": 3970,
      "zig": 3971,
      "Ánh": 3972,
      "Đằng": 3973,
      "đênh": 3974,
      "đốm": 3975,
      "Ưm": 3976,
      "Ẩn": 3977,
      "ngục": 3978,
      "ngán": 3979,
      "ngươi": 3980,
      "nhá": 3981,
      "nhậu": 3982,
      "nhạo": 3983,
      "nhằm": 3984,
      "thô": 3985,
      "thác": 3986,
      "thập": 3987,
      "thượng": 3988,
      "thụt": 3989,
      "thiêu": 3990,
      "ther": 3991,
      "chau": 3992,
      "chuộc": 3993,
      "chài": 3994,
      "chọi": 3995,
      "kha": 3996,
      "khàng": 3997,
      "làn": 3998,
      "trồi": 3999,
      "trend": 4000,
      "quẹt": 4001,
      "giũa": 4002,
      "and": 4003,
      "phồng": 4004,
      "tive": 4005,
      "khiêu": 4006,
      "nghiên": 4007,
      "nghèn": 4008,
      "choáng": 4009,
      "khói": 4010,
      "quái": 4011,
      "lắc": 4012,
      "Nhà": 4013,
      "Nhút": 4014,
      "Cứu": 4015,
      "bua": 4016,
      "quyển": 4017,
      "khoác": 4018,
      "khoắn": 4019,
      "dora": 4020,
      "Thu": 4021,
      "Thanh": 4022,
      "ghẹo": 4023,
      "tam": 4024,
      "khứa": 4025,
      "nhẹt": 4026,
      "Trí": 4027,
      "Trở": 4028,
      "Nóng": 4029,
      "aming": 4030,
      "bón": 4031,
      "hack": 4032,
      "chua": 4033,
      "chuột": 4034,
      "vice": 4035,
      "Hoài": 4036,
      "Đón": 4037,
      "...?": 4038,
      "...\",": 4039,
      "...?).": 4040,
      "Haizz": 4041,
      "shaming": 4042,
      "casu": 4043,
      "cafe": 4044,
      "dòm": 4045,
      "xuề": 4046,
      "unblock": 4047,
      "resi": 4048,
      "rekin": 4049,
      "...'),": 4050,
      "khui": 4051,
      "vỏn": 4052,
      "checklist": 4053,
      "body": 4054,
      "huynh": 4055,
      "dis": 4056,
      "podca": 4057,
      "most": 4058,
      "almost": 4059,
      "cuộn": 4060,
      "nhiễu": 4061,
      "dealbreaker": 4062,
      "facetime": 4063,
      "group": 4064,
      "sister": 4065,
      "commitment": 4066,
      "hurtful": 4067,
      "Aww": 4068,
      "Mỉm": 4069,
      "Pandora": 4070,
      "Tùy": 4071,
      "bướm": 4072,
      "brother": 4073,
      "ffirma": 4074,
      "grey": 4075,
      "sưởi": 4076,
      "share": 4077,
      "túy": 4078,
      "tởm": 4079,
      "vươn": 4080,
      "casual": 4081,
      "resili": 4082,
      "rekindle": 4083,
      "podcast": 4084,
      "ffirmation": 4085,
      "!).": 4086,
      "\"...": 4087,
      "'),": 4088,
      ".)": 4089,
      "?),": 4090,
      "?\",": 4091,
      "AB": 4092,
      "AI": 4093,
      "Ac": 4094,
      "Affirmation": 4095,
      "Bám": 4096,
      "Bầu": 4097,
      "Bỗng": 4098,
      "Cười": 4099,
      "Cai": 4100,
      "Cung": 4101,
      "Chạnh": 4102,
      "Căng": 4103,
      "Cũng": 4104,
      "Di": 4105,
      "Dồn": 4106,
      "Danh": 4107,
      "FA": 4108,
      "Ga": 4109,
      "Gương": 4110,
      "Gắn": 4111,
      "Hạ": 4112,
      "Hậu": 4113,
      "Hết": 4114,
      "Hội": 4115,
      "Hài": 4116,
      "Hướng": 4117,
      "Hóa": 4118,
      "HAI": 4119,
      "Ju": 4120,
      "Kế": 4121,
      "Kho": 4122,
      "Li": 4123,
      "Lối": 4124,
      "Liều": 4125,
      "Liên": 4126,
      "Lừa": 4127,
      "Lùi": 4128,
      "Lạm": 4129,
      "Mớ": 4130,
      "Môi": 4131,
      "Môn": 4132,
      "Mãi": 4133,
      "NG": 4134,
      "Nơi": 4135,
      "Nuối": 4136,
      "Nuốt": 4137,
      "Nâng": 4138,
      "Nét": 4139,
      "Oh": 4140,
      "Ou": 4141,
      "Red": 4142,
      "Rom": 4143,
      "Số": 4144,
      "Song": 4145,
      "Suốt": 4146,
      "Ser": 4147,
      "Ti": 4148,
      "Tư": 4149,
      "Tầm": 4150,
      "Tok": 4151,
      "Tiếng": 4152,
      "Vài": 4153,
      "Vun": 4154,
      "ab": 4155,
      "bẽ": 4156,
      "bần": 4157,
      "bừng": 4158,
      "bắc": 4159,
      "bấu": 4160,
      "bấn": 4161,
      "binh": 4162,
      "bẹp": 4163,
      "bảy": 4164,
      "bli": 4165,
      "bling": 4166,
      "btle": 4167,
      "cỏ": 4168,
      "cống": 4169,
      "clu": 4170,
      "cre": 4171,
      "cợn": 4172,
      "ds": 4173,
      "dâu": 4174,
      "dấn": 4175,
      "dép": 4176,
      "dớp": 4177,
      "el": 4178,
      "eet": 4179,
      "fre": 4180,
      "fts": 4181,
      "fail": 4182,
      "gy": 4183,
      "gổ": 4184,
      "gen": 4185,
      "gạc": 4186,
      "gào": 4187,
      "gầm": 4188,
      "hiến": 4189,
      "hiền": 4190,
      "hin": 4191,
      "ido": 4192,
      "kí": 4193,
      "kTok": 4194,
      "lf": 4195,
      "ln": 4196,
      "lù": 4197,
      "lụ": 4198,
      "lau": 4199,
      "lìm": 4200,
      "lạt": 4201,
      "liếm": 4202,
      "lăm": 4203,
      "lẩy": 4204,
      "lùm": 4205,
      "languag": 4206,
      "mổ": 4207,
      "mủi": 4208,
      "miêu": 4209,
      "mess": 4210,
      "mis": 4211,
      "nu": 4212,
      "nêu": 4213,
      "nến": 4214,
      "nôn": 4215,
      "nạt": 4216,
      "otion": 4217,
      "option": 4218,
      "pend": 4219,
      "pri": 4220,
      "per": 4221,
      "pat": 4222,
      "rả": 4223,
      "rể": 4224,
      "rồ": 4225,
      "rích": 4226,
      "rầu": 4227,
      "rén": 4228,
      "ráo": 4229,
      "rôm": 4230,
      "rạp": 4231,
      "rds": 4232,
      "rpri": 4233,
      "sơ": 4234,
      "sỗ": 4235,
      "sần": 4236,
      "sắng": 4237,
      "sáp": 4238,
      "stra": 4239,
      "ssi": 4240,
      "tch": 4241,
      "tỏi": 4242,
      "teo": 4243,
      "tanh": 4244,
      "tẹo": 4245,
      "vs": 4246,
      "vé": 4247,
      "vĩ": 4248,
      "vệt": 4249,
      "vỗng": 4250,
      "vén": 4251,
      "vọt": 4252,
      "wn": 4253,
      "xà": 4254,
      "xì": 4255,
      "xẻ": 4256,
      "xông": 4257,
      "xào": 4258,
      "xéo": 4259,
      "xốc": 4260,
      "xùm": 4261,
      "zac": 4262,
      "zic": 4263,
      "Êy": 4264,
      "ím": 4265,
      "Ăn": 4266,
      "Đồ": 4267,
      "Đời": 4268,
      "Điểm": 4269,
      "Đấu": 4270,
      "đả": 4271,
      "đố": 4272,
      "đay": 4273,
      "đùng": 4274,
      "đục": 4275,
      "điềm": 4276,
      "đớp": 4277,
      "ẩng": 4278,
      "ếng": 4279,
      "ều": 4280,
      "ễng": 4281,
      "ỏm": 4282,
      "Ủa": 4283,
      "Ứng": 4284,
      "”,": 4285,
      "光明": 4286,
      "ngả": 4287,
      "ngách": 4288,
      "ngạc": 4289,
      "ngậm": 4290,
      "ngửa": 4291,
      "ngớt": 4292,
      "ngấm": 4293,
      "ngóc": 4294,
      "ngẩng": 4295,
      "nhã": 4296,
      "nhàn": 4297,
      "nhúng": 4298,
      "nháp": 4299,
      "nhọt": 4300,
      "nhím": 4301,
      "thy": 4302,
      "thôn": 4303,
      "thâm": 4304,
      "thép": 4305,
      "thẩn": 4306,
      "thiển": 4307,
      "thít": 4308,
      "thủng": 4309,
      "thắm": 4310,
      "chề": 4311,
      "chợ": 4312,
      "chang": 4313,
      "chích": 4314,
      "chập": 4315,
      "chước": 4316,
      "chép": 4317,
      "chạc": 4318,
      "chéo": 4319,
      "chằm": 4320,
      "cháu": 4321,
      "khờ": 4322,
      "khập": 4323,
      "khâm": 4324,
      "khạo": 4325,
      "khốc": 4326,
      "khều": 4327,
      "trần": 4328,
      "triết": 4329,
      "trúng": 4330,
      "trượt": 4331,
      "quo": 4332,
      "quặc": 4333,
      "gic": 4334,
      "giếng": 4335,
      "cóc": 4336,
      "phu": 4337,
      "phác": 4338,
      "phẫn": 4339,
      "phăng": 4340,
      "phượt": 4341,
      "tic": 4342,
      "tiou": 4343,
      "khinh": 4344,
      "khiễng": 4345,
      "nghiến": 4346,
      "họa": 4347,
      "mào": 4348,
      "email": 4349,
      "emotion": 4350,
      "Nhan": 4351,
      "Nhịp": 4352,
      "địch": 4353,
      "buýt": 4354,
      "khoa": 4355,
      "khoải": 4356,
      "ence": 4357,
      "loài": 4358,
      "logic": 4359,
      "Ngộ": 4360,
      "Ngột": 4361,
      "Ngừng": 4362,
      "Khổ": 4363,
      "Khuyết": 4364,
      "vuột": 4365,
      "vuln": 4366,
      "doanh": 4367,
      "down": 4368,
      "conta": 4369,
      "consist": 4370,
      "Quà": 4371,
      "Quãng": 4372,
      "thun": 4373,
      "timac": 4374,
      "Thi": 4375,
      "Thận": 4376,
      "Thắng": 4377,
      "Thấu": 4378,
      "Thêm": 4379,
      "Thuyết": 4380,
      "Cha": 4381,
      "Chưa": 4382,
      "Chịu": 4383,
      "Chán": 4384,
      "Gifts": 4385,
      "tuôn": 4386,
      "Trì": 4387,
      "Trình": 4388,
      "Trang": 4389,
      "duyệt": 4390,
      "instagram": 4391,
      "inconsist": 4392,
      "intimac": 4393,
      "camera": 4394,
      "ving": 4395,
      "...?'.": 4396,
      "bốn": 4397,
      "nhuộm": 4398,
      "ruộng": 4399,
      "cap": 4400,
      "match": 4401,
      "xui": 4402,
      "lida": 4403,
      "liet": 4404,
      "lệnh": 4405,
      "unmatch": 4406,
      "rec": 4407,
      "refre": 4408,
      "thịt": 4409,
      "les": 4410,
      "lờn": 4411,
      "khuếch": 4412,
      "bit": 4413,
      "biz": 4414,
      "subtle": 4415,
      "surpri": 4416,
      "Thoải": 4417,
      "shock": 4418,
      "Facetime": 4419,
      "showbiz": 4420,
      "stage": 4421,
      "Insta": 4422,
      "valida": 4423,
      "ghosted": 4424,
      "ser": 4425,
      "self": 4426,
      "Words": 4427,
      "sibling": 4428,
      "possi": 4429,
      "heal": 4430,
      "moi": 4431,
      "...\").": 4432,
      "age": 4433,
      "fect": 4434,
      "talking": 4435,
      "xịt": 4436,
      "light": 4437,
      "frustra": 4438,
      "cautiou": 4439,
      "facebook": 4440,
      "grow": 4441,
      "erability": 4442,
      "publi": 4443,
      "tern": 4444,
      "playboy": 4445,
      "zigzag": 4446,
      "dismis": 4447,
      "resilience": 4448,
      "ABC": 4449,
      "Acts": 4450,
      "Juliet": 4451,
      "Khoảnh": 4452,
      "Like": 4453,
      "Romeo": 4454,
      "Service": 4455,
      "TikTok": 4456,
      "club": 4457,
      "gym": 4458,
      "hint": 4459,
      "idol": 4460,
      "lụa": 4461,
      "language": 4462,
      "message": 4463,
      "perfect": 4464,
      "pattern": 4465,
      "emotional": 4466,
      "vulnerability": 4467,
      "contact": 4468,
      "inconsistent": 4469,
      "intimacy": 4470,
      "refresh": 4471,
      "surprise": 4472,
      "validation": 4473,
      "possibility": 4474,
      "healthy": 4475,
      "cautious": 4476,
      "public": 4477,
      "dismiss": 4478,
      "!)": 4479,
      "!'.": 4480,
      "!),": 4481,
      "\")": 4482,
      "\"),": 4483,
      "'...": 4484,
      "*.": 4485,
      "+,": 4486,
      ".),": 4487,
      "18": 4488,
      "20": 4489,
      "?.": 4490,
      "?”,": 4491,
      "AY": 4492,
      "Ap": 4493,
      "Aha": 4494,
      "Ahi": 4495,
      "Bà": 4496,
      "Bực": 4497,
      "Bàn": 4498,
      "Bắc": 4499,
      "Bánh": 4500,
      "Bền": 4501,
      "Bứt": 4502,
      "Bởi": 4503,
      "CM": 4504,
      "Cá": 4505,
      "CẢ": 4506,
      "CẦ": 4507,
      "CẬ": 4508,
      "Cài": 4509,
      "Cặp": 4510,
      "Cánh": 4511,
      "Củng": 4512,
      "Do": 4513,
      "Dò": 4514,
      "Dung": 4515,
      "Dây": 4516,
      "Dập": 4517,
      "Dịu": 4518,
      "Dựng": 4519,
      "Gu": 4520,
      "Gỡ": 4521,
      "Guồng": 4522,
      "Gợn": 4523,
      "GAT": 4524,
      "HÔ": 4525,
      "Hễ": 4526,
      "Hơn": 4527,
      "Hiện": 4528,
      "Hạt": 4529,
      "Háo": 4530,
      "Kí": 4531,
      "Kỹ": 4532,
      "Kìm": 4533,
      "Kiềm": 4534,
      "Kén": 4535,
      "KHÔ": 4536,
      "Lơ": 4537,
      "LẬ": 4538,
      "Lễ": 4539,
      "Lệ": 4540,
      "Lỗ": 4541,
      "Lao": 4542,
      "Lôi": 4543,
      "Lạc": 4544,
      "Lợi": 4545,
      "Lưu": 4546,
      "Mu": 4547,
      "Mù": 4548,
      "MỘ": 4549,
      "Mặt": 4550,
      "Nấu": 4551,
      "Nặng": 4552,
      "Nằm": 4553,
      "Ove": 4554,
      "Okey": 4555,
      "Phy": 4556,
      "Polyamo": 4557,
      "Ra": 4558,
      "Re": 4559,
      "RẤ": 4560,
      "Rạn": 4561,
      "Res": 4562,
      "Rèn": 4563,
      "Si": 4564,
      "Sắc": 4565,
      "Sợi": 4566,
      "Sướng": 4567,
      "Sốc": 4568,
      "Sửa": 4569,
      "Sớm": 4570,
      "Sốt": 4571,
      "Tơ": 4572,
      "Tệ": 4573,
      "Tổ": 4574,
      "TỨ": 4575,
      "Tối": 4576,
      "Tên": 4577,
      "Tiết": 4578,
      "Tội": 4579,
      "Tiện": 4580,
      "Tường": 4581,
      "Tách": 4582,
      "Tán": 4583,
      "Thoạt": 4584,
      "Tốn": 4585,
      "Vệ": 4586,
      "Vị": 4587,
      "Vỡ": 4588,
      "Vương": 4589,
      "Vướng": 4590,
      "Viễn": 4591,
      "XY": 4592,
      "Xứng": 4593,
      "Xấu": 4594,
      "ad": 4595,
      "af": 4596,
      "as": 4597,
      "all": 4598,
      "avai": 4599,
      "ast": 4600,
      "affirmation": 4601,
      "bc": 4602,
      "bò": 4603,
      "bệ": 4604,
      "bươ": 4605,
      "bện": 4606,
      "bia": 4607,
      "bôi": 4608,
      "bổn": 4609,
      "bòn": 4610,
      "bảng": 4611,
      "bục": 4612,
      "bưu": 4613,
      "buốt": 4614,
      "bọt": 4615,
      "bếp": 4616,
      "ble": 4617,
      "best": 4618,
      "cy": 4619,
      "cò": 4620,
      "cỗ": 4621,
      "cộ": 4622,
      "cữ": 4623,
      "cự": 4624,
      "cối": 4625,
      "cương": 4626,
      "côi": 4627,
      "câm": 4628,
      "cước": 4629,
      "càm": 4630,
      "còi": 4631,
      "cõng": 4632,
      "cọc": 4633,
      "càu": 4634,
      "cli": 4635,
      "ction": 4636,
      "cling": 4637,
      "dã": 4638,
      "dì": 4639,
      "dí": 4640,
      "dột": 4641,
      "dại": 4642,
      "díu": 4643,
      "dọc": 4644,
      "dèm": 4645,
      "dờn": 4646,
      "dwi": 4647,
      "dỏm": 4648,
      "eng": 4649,
      "eam": 4650,
      "ect": 4651,
      "eat": 4652,
      "flo": 4653,
      "fam": 4654,
      "fle": 4655,
      "gỗ": 4656,
      "gọng": 4657,
      "gặng": 4658,
      "gap": 4659,
      "hh": 4660,
      "hà": 4661,
      "há": 4662,
      "hô": 4663,
      "hù": 4664,
      "hớ": 4665,
      "hủ": 4666,
      "hải": 4667,
      "hang": 4668,
      "hạng": 4669,
      "hắt": 4670,
      "hấn": 4671,
      "hụi": 4672,
      "hưu": 4673,
      "hùi": 4674,
      "hửng": 4675,
      "huyện": 4676,
      "hốt": 4677,
      "if": 4678,
      "ily": 4679,
      "idea": 4680,
      "iving": 4681,
      "kèo": 4682,
      "lã": 4683,
      "lê": 4684,
      "lí": 4685,
      "lô": 4686,
      "lú": 4687,
      "lẹ": 4688,
      "lị": 4689,
      "lử": 4690,
      "lữ": 4691,
      "lình": 4692,
      "lem": 4693,
      "lãi": 4694,
      "lính": 4695,
      "lưa": 4696,
      "lọi": 4697,
      "lim": 4698,
      "lụt": 4699,
      "lũi": 4700,
      "líu": 4701,
      "lét": 4702,
      "lèo": 4703,
      "lent": 4704,
      "lter": 4705,
      "languages": 4706,
      "mn": 4707,
      "mp": 4708,
      "má": 4709,
      "mè": 4710,
      "mỡ": 4711,
      "mười": 4712,
      "mộc": 4713,
      "mem": 4714,
      "mâm": 4715,
      "mồn": 4716,
      "mảng": 4717,
      "măng": 4718,
      "mít": 4719,
      "mưu": 4720,
      "mịch": 4721,
      "mbo": 4722,
      "mẩu": 4723,
      "nể": 4724,
      "nộ": 4725,
      "nạng": 4726,
      "nấp": 4727,
      "nêm": 4728,
      "nặn": 4729,
      "ness": 4730,
      "ner": 4731,
      "oải": 4732,
      "obia": 4733,
      "pt": 4734,
      "py": 4735,
      "pau": 4736,
      "ping": 4737,
      "par": 4738,
      "ppo": 4739,
      "rn": 4740,
      "rê": 4741,
      "ró": 4742,
      "rơ": 4743,
      "rị": 4744,
      "r扰": 4745,
      "rau": 4746,
      "rát": 4747,
      "rồng": 4748,
      "ràm": 4749,
      "rượt": 4750,
      "rít": 4751,
      "ríu": 4752,
      "rke": 4753,
      "rưỡi": 4754,
      "rợn": 4755,
      "rtua": 4756,
      "sw": 4757,
      "sành": 4758,
      "sòng": 4759,
      "sùng": 4760,
      "sái": 4761,
      "súng": 4762,
      "sen": 4763,
      "sượng": 4764,
      "sam": 4765,
      "sưu": 4766,
      "sing": 4767,
      "súa": 4768,
      "spo": 4769,
      "stic": 4770,
      "té": 4771,
      "tép": 4772,
      "tòi": 4773,
      "tôm": 4774,
      "túi": 4775,
      "tóp": 4776,
      "two": 4777,
      "tlight": 4778,
      "tgrow": 4779,
      "tbc": 4780,
      "tner": 4781,
      "um": 4782,
      "uể": 4783,
      "uch": 4784,
      "urn": 4785,
      "vv": 4786,
      "vó": 4787,
      "võ": 4788,
      "vại": 4789,
      "vay": 4790,
      "vắc": 4791,
      "việt": 4792,
      "von": 4793,
      "vinh": 4794,
      "vãng": 4795,
      "vớt": 4796,
      "vâng": 4797,
      "vol": 4798,
      "vóc": 4799,
      "vót": 4800,
      "way": 4801,
      "wha": 4802,
      "xi": 4803,
      "xy": 4804,
      "xê": 4805,
      "xò": 4806,
      "xó": 4807,
      "xình": 4808,
      "xương": 4809,
      "xắn": 4810,
      "xiêu": 4811,
      "xúi": 4812,
      "xic": 4813,
      "xing": 4814,
      "xẻo": 4815,
      "ya": 4816,
      "yes": 4817,
      "ze": 4818,
      "Âm": 4819,
      "Ích": 4820,
      "Ông": 4821,
      "Đa": 4822,
      "Đá": 4823,
      "Đổ": 4824,
      "Đỡ": 4825,
      "Đột": 4826,
      "Đương": 4827,
      "Đẳng": 4828,
      "Đáp": 4829,
      "Đợi": 4830,
      "Đáng": 4831,
      "đô": 4832,
      "đớ": 4833,
      "đờ": 4834,
      "đụ": 4835,
      "điệp": 4836,
      "đẫm": 4837,
      "đơm": 4838,
      "ơng": 4839,
      "ан": 4840,
      "ран": 4841,
      "ซẽ": 4842,
      "ủa": 4843,
      "かに": 4844,
      "尽心": 4845,
      "正大": 4846,
      "確實": 4847,
      "確かに": 4848,
      "耗尽心": 4849,
      "쌓dần": 4850,
      "ngụ": 4851,
      "ngâm": 4852,
      "ngước": 4853,
      "ngút": 4854,
      "ngáng": 4855,
      "ngùi": 4856,
      "ngọc": 4857,
      "ngửi": 4858,
      "ngáy": 4859,
      "ngẩm": 4860,
      "ngụy": 4861,
      "nhú": 4862,
      "nhả": 4863,
      "nhọ": 4864,
      "nhử": 4865,
      "nhạnh": 4866,
      "nhồi": 4867,
      "nhục": 4868,
      "nhào": 4869,
      "nhộn": 4870,
      "nháy": 4871,
      "nhấc": 4872,
      "nhóc": 4873,
      "nhựa": 4874,
      "the": 4875,
      "thê": 4876,
      "thò": 4877,
      "thẻ": 4878,
      "thòng": 4879,
      "thổn": 4880,
      "thánh": 4881,
      "thinh": 4882,
      "thượt": 4883,
      "thét": 4884,
      "thóp": 4885,
      "chan": 4886,
      "chác": 4887,
      "chay": 4888,
      "chong": 4889,
      "chành": 4890,
      "chòng": 4891,
      "chội": 4892,
      "chưng": 4893,
      "chàm": 4894,
      "chiêm": 4895,
      "chầm": 4896,
      "chắp": 4897,
      "chướng": 4898,
      "chộn": 4899,
      "chén": 4900,
      "chém": 4901,
      "chửi": 4902,
      "chóc": 4903,
      "khế": 4904,
      "khối": 4905,
      "khâu": 4906,
      "khít": 4907,
      "làng": 4908,
      "trù": 4909,
      "trớn": 4910,
      "trám": 4911,
      "trán": 4912,
      "trũng": 4913,
      "trụi": 4914,
      "treat": 4915,
      "quỷ": 4916,
      "quảng": 4917,
      "quăng": 4918,
      "quạt": 4919,
      "quẩy": 4920,
      "cảng": 4921,
      "gim": 4922,
      "giở": 4923,
      "giội": 4924,
      "giẫm": 4925,
      "giùm": 4926,
      "yêuầm": 4927,
      "yêu光明": 4928,
      "cót": 4929,
      "phất": 4930,
      "phết": 4931,
      "phổi": 4932,
      "phủi": 4933,
      "phẫu": 4934,
      "phun": 4935,
      "phui": 4936,
      "phobia": 4937,
      "auto": 4938,
      "đểTin": 4939,
      "tiêm": 4940,
      "tivi": 4941,
      "title": 4942,
      "đót": 4943,
      "nghé": 4944,
      "nghen": 4945,
      "nghịu": 4946,
      "nghét": 4947,
      "choạng": 4948,
      "choảng": 4949,
      "trong光明": 4950,
      "hon": 4951,
      "hoác": 4952,
      "angle": 4953,
      "rada": 4954,
      "phải猜": 4955,
      "nhét": 4956,
      "iate": 4957,
      "màng": 4958,
      "quát": 4959,
      "quách": 4960,
      "bịn": 4961,
      "thửc": 4962,
      "điêu": 4963,
      "quality": 4964,
      "Nhá": 4965,
      "Nhạt": 4966,
      "Nhượng": 4967,
      "mạng確實": 4968,
      "bum": 4969,
      "buồm": 4970,
      "toẹt": 4971,
      "quyên": 4972,
      "quyện": 4973,
      "khoẻ": 4974,
      "khoai": 4975,
      "khomn": 4976,
      "enig": 4977,
      "ency": 4978,
      "xa確かに": 4979,
      "loang": 4980,
      "loạng": 4981,
      "Ngõ": 4982,
      "Ngỏ": 4983,
      "Ngây": 4984,
      "Nghiện": 4985,
      "Ngưỡng": 4986,
      "Nghề": 4987,
      "Khích": 4988,
      "Khơi": 4989,
      "Khép": 4990,
      "Khéo": 4991,
      "Khóa": 4992,
      "đủi": 4993,
      "thoăn": 4994,
      "thoắt": 4995,
      "thoạt": 4996,
      "lue": 4997,
      "soul": 4998,
      "thui": 4999,
      "timing": 5000,
      "The": 5001,
      "Thị": 5002,
      "Thôi": 5003,
      "Thức": 5004,
      "Thăng": 5005,
      "Thắp": 5006,
      "ngoắt": 5007,
      "ngoảnh": 5008,
      "ngoằn": 5009,
      "ngoáy": 5010,
      "ngoãn": 5011,
      "ngoèo": 5012,
      "ghế": 5013,
      "ghlight": 5014,
      "Chỗ": 5015,
      "Chiều": 5016,
      "Chần": 5017,
      "Chừng": 5018,
      "Chấn": 5019,
      "Chim": 5020,
      "Chạy": 5021,
      "Chap": 5022,
      "Giằng": 5023,
      "Giậm": 5024,
      "Giving": 5025,
      "trịnh": 5026,
      "lậpệt": 5027,
      "tuếch": 5028,
      "impro": 5029,
      "imperfect": 5030,
      "đoảng": 5031,
      "Trớ": 5032,
      "Trừ": 5033,
      "Trông": 5034,
      "Trau": 5035,
      "Trường": 5036,
      "Truyền": 5037,
      "nghiệm耗尽心": 5038,
      "pháo": 5039,
      "invol": 5040,
      "vịn": 5041,
      "dụm": 5042,
      "ngộtซẽ": 5043,
      "haha": 5044,
      "habit": 5045,
      "chờn": 5046,
      "viru": 5047,
      "visi": 5048,
      "vibe": 5049,
      "virtua": 5050,
      "coast": 5051,
      "combo": 5052,
      "copy": 5053,
      "...,": 5054,
      "Phí": 5055,
      "Phần": 5056,
      "Phong": 5057,
      "Phim": 5058,
      "Phiền": 5059,
      "',...": 5060,
      "chive": 5061,
      "vía": 5062,
      "roi": 5063,
      "roll": 5064,
      "rocation": 5065,
      "room": 5066,
      "nghỉm": 5067,
      "Aiya": 5068,
      "rupt": 5069,
      "xoành": 5070,
      "xoạch": 5071,
      "cal": 5072,
      "lling": 5073,
      "lled": 5074,
      "lleng": 5075,
      "mate": 5076,
      "matic": 5077,
      "marke": 5078,
      "xuýt": 5079,
      "live": 5080,
      "life": 5081,
      "lize": 5082,
      "hãnh": 5083,
      "Cốt": 5084,
      "traile": 5085,
      "thườn": 5086,
      "follower": 5087,
      "und": 5088,
      "unavai": 5089,
      "ved": 5090,
      "rebo": 5091,
      "resp": 5092,
      "reel": 5093,
      "rủa": 5094,
      "lear": 5095,
      "lete": 5096,
      "highlight": 5097,
      "boar": 5098,
      "tím": 5099,
      "nhoài": 5100,
      "lable": 5101,
      "muội": 5102,
      "street": 5103,
      "stream": 5104,
      "triangle": 5105,
      "Loay": 5106,
      "sure": 5107,
      "suýt": 5108,
      "suppo": 5109,
      "acts": 5110,
      "trừu": 5111,
      "dear": 5112,
      "depend": 5113,
      "delete": 5114,
      "showroom": 5115,
      "Bad": 5116,
      "iprocation": 5117,
      "sandwi": 5118,
      "apprec": 5119,
      "?').": 5120,
      "value": 5121,
      "phiu": 5122,
      "sted": 5123,
      "secre": 5124,
      "disp": 5125,
      "filter": 5126,
      "filled": 5127,
      "Hmmm": 5128,
      "trauma": 5129,
      "Time": 5130,
      "archive": 5131,
      "sitive": 5132,
      "silent": 5133,
      "sical": 5134,
      "tuasi": 5135,
      "ted": 5136,
      "Nghĩa": 5137,
      "sales": 5138,
      "rthinking": 5139,
      "polyamorou": 5140,
      "challeng": 5141,
      "overthink": 5142,
      "mourn": 5143,
      "Healing": 5144,
      "real": 5145,
      "goal": 5146,
      "good": 5147,
      "Touch": 5148,
      "Toxic": 5149,
      "album": 5150,
      "bye": 5151,
      "willing": 5152,
      "nick": 5153,
      "fear": 5154,
      "feed": 5155,
      "feel": 5156,
      "fection": 5157,
      "Nguội": 5158,
      "Ahhh": 5159,
      "wow": 5160,
      "nhổm": 5161,
      "Quality": 5162,
      "Comment": 5163,
      "outgrow": 5164,
      "ceiving": 5165,
      "etc": 5166,
      "lover": 5167,
      "fulfilled": 5168,
      "menly": 5169,
      "nom": 5170,
      "push": 5171,
      "pull": 5172,
      "Nguyệt": 5173,
      "tersw": 5174,
      "beng": 5175,
      "below": 5176,
      "playlist": 5177,
      "tively": 5178,
      "disresp": 5179,
      "resilient": 5180,
      "Dilem": 5181,
      "Gary": 5182,
      "NGAY": 5183,
      "Ouch": 5184,
      "Outgrow": 5185,
      "above": 5186,
      "abrupt": 5187,
      "cỏn": 5188,
      "creep": 5189,
      "kíp": 5190,
      "nuông": 5191,
      "nuơng": 5192,
      "pending": 5193,
      "ziczac": 5194,
      "quota": 5195,
      "Ngộp": 5196,
      "reciprocation": 5197,
      "bittersw": 5198,
      "service": 5199,
      "sertively": 5200,
      "siblingzone": 5201,
      "frustrasted": 5202,
      "frustrated": 5203,
      "180": 5204,
      "App": 5205,
      "Ahihi": 5206,
      "CMD": 5207,
      "CẦN": 5208,
      "CẬU": 5209,
      "GATO": 5210,
      "KHÔNG": 5211,
      "LẬP": 5212,
      "Mua": 5213,
      "MỘT": 5214,
      "Overthinking": 5215,
      "Physical": 5216,
      "Polyamory": 5217,
      "Receiving": 5218,
      "RẤT": 5219,
      "Reset": 5220,
      "Situasi": 5221,
      "TỨC": 5222,
      "XYZ": 5223,
      "add": 5224,
      "affection": 5225,
      "assertively": 5226,
      "affirmations": 5227,
      "bươm": 5228,
      "click": 5229,
      "clingy": 5230,
      "dìu": 5231,
      "flop": 5232,
      "family": 5233,
      "flexing": 5234,
      "idealize": 5235,
      "lãm": 5236,
      "lẹm": 5237,
      "lịm": 5238,
      "limbo": 5239,
      "mptu": 5240,
      "meme": 5241,
      "pause": 5242,
      "partner": 5243,
      "rón": 5244,
      "rịn": 5245,
      "sensitive": 5246,
      "single": 5247,
      "spotlight": 5248,
      "sticker": 5249,
      "what": 5250,
      "đớng": 5251,
      "đụn": 5252,
      "рано": 5253,
      "treatment": 5254,
      "trong光明正大": 5255,
      "radar": 5256,
      "enigmatic": 5257,
      "soulmate": 5258,
      "Chapman": 5259,
      "impromptu": 5260,
      "nghiệm耗尽心力": 5261,
      "involved": 5262,
      "virus": 5263,
      "visit": 5264,
      "virtual": 5265,
      "coaster": 5266,
      "roller": 5267,
      "marketing": 5268,
      "trailer": 5269,
      "unavailable": 5270,
      "rebound": 5271,
      "learn": 5272,
      "board": 5273,
      "support": 5274,
      "dependency": 5275,
      "sandwich": 5276,
      "appreciate": 5277,
      "secretive": 5278,
      "display": 5279,
      "polyamorous": 5280,
      "challenge": 5281,
      "goals": 5282,
      "goodbye": 5283,
      "willingness": 5284,
      "disrespect": 5285,
      "Dilemma": 5286,
      "abruptly": 5287,
      "bittersweet": 5288
    },
    "merges": [
      [
        "n",
        "g"
      ],
      [
        "n",
        "h"
      ],
      [
        "t",
        "h"
      ],
      [
        "c",
        "h"
      ],
      [
        "k",
        "h"
      ],
      [
        "ì",
        "nh"
      ],
      [
        "l",
        "à"
      ],
      [
        "ờ",
        "i"
      ],
      [
        "t",
        "r"
      ],
      [
        "v",
        "à"
      ],
      [
        "ô",
        "ng"
      ],
      [
        "q",
        "u"
      ],
      [
        "c",
        "ả"
      ],
      [
        "g",
        "i"
      ],
      [
        "ư",
        "ời"
      ],
      [
        "kh",
        "ông"
      ],
      [
        "ng",
        "ười"
      ],
      [
        "a",
        "n"
      ],
      [
        "ê",
        "u"
      ],
      [
        "m",
        "ình"
      ],
      [
        "y",
        "êu"
      ],
      [
        "i",
        "ệ"
      ],
      [
        "c",
        "ó"
      ],
      [
        "cả",
        "m"
      ],
      [
        "p",
        "h"
      ],
      [
        "ậ",
        "u"
      ],
      [
        "ố",
        "i"
      ],
      [
        "ấ",
        "y"
      ],
      [
        "c",
        "ủ"
      ],
      [
        "củ",
        "a"
      ],
      [
        "ộ",
        "t"
      ],
      [
        "i",
        "ế"
      ],
      [
        "ớ",
        "i"
      ],
      [
        "c",
        "ậu"
      ],
      [
        "ấ",
        "t"
      ],
      [
        "qu",
        "an"
      ],
      [
        "m",
        "ột"
      ],
      [
        "s",
        "ự"
      ],
      [
        "ữ",
        "ng"
      ],
      [
        "i",
        "ề"
      ],
      [
        "ạ",
        "i"
      ],
      [
        "â",
        "n"
      ],
      [
        "ê",
        "n"
      ],
      [
        "th",
        "ấy"
      ],
      [
        "nh",
        "ững"
      ],
      [
        "á",
        "c"
      ],
      [
        "a",
        "i"
      ],
      [
        "iề",
        "u"
      ],
      [
        "ạ",
        "n"
      ],
      [
        "v",
        "ới"
      ],
      [
        "n",
        "à"
      ],
      [
        "a",
        "u"
      ],
      [
        "nh",
        "ư"
      ],
      [
        "u",
        "y"
      ],
      [
        "l",
        "ại"
      ],
      [
        "h",
        "ệ"
      ],
      [
        "ú",
        "c"
      ],
      [
        "a",
        "y"
      ],
      [
        "đ",
        "ể"
      ],
      [
        "th",
        "ể"
      ],
      [
        "ầ",
        "n"
      ],
      [
        "m",
        "ối"
      ],
      [
        "iệ",
        "c"
      ],
      [
        "b",
        "ạn"
      ],
      [
        "ã",
        "y"
      ],
      [
        "o",
        "ng"
      ],
      [
        "ả",
        "i"
      ],
      [
        "c",
        "á"
      ],
      [
        "t",
        "i"
      ],
      [
        "t",
        "ình"
      ],
      [
        "ả",
        "n"
      ],
      [
        "i",
        "ể"
      ],
      [
        "ư",
        "ơ"
      ],
      [
        "ươ",
        "ng"
      ],
      [
        "v",
        "ề"
      ],
      [
        "n",
        "ó"
      ],
      [
        "ư",
        "ợ"
      ],
      [
        "đ",
        "ó"
      ],
      [
        "là",
        "m"
      ],
      [
        "kh",
        "i"
      ],
      [
        "nà",
        "y"
      ],
      [
        "th",
        "ân"
      ],
      [
        "ơ",
        "n"
      ],
      [
        "ng",
        "h"
      ],
      [
        "cá",
        "ch"
      ],
      [
        "h",
        "ọ"
      ],
      [
        "ch",
        "o"
      ],
      [
        "H",
        "ãy"
      ],
      [
        "ậ",
        "t"
      ],
      [
        "ọ",
        "ng"
      ],
      [
        "tr",
        "ong"
      ],
      [
        "đ",
        "iều"
      ],
      [
        "h",
        "o"
      ],
      [
        "gi",
        "ác"
      ],
      [
        "t",
        "ừ"
      ],
      [
        "ượ",
        "c"
      ],
      [
        "đ",
        "ược"
      ],
      [
        "h",
        "ai"
      ],
      [
        "ế",
        "t"
      ],
      [
        "th",
        "ật"
      ],
      [
        "b",
        "ản"
      ],
      [
        "M",
        "ình"
      ],
      [
        "ch",
        "uy"
      ],
      [
        "nh",
        "au"
      ],
      [
        "nó",
        "i"
      ],
      [
        "c",
        "ũ"
      ],
      [
        "ậ",
        "n"
      ],
      [
        "ệ",
        "n"
      ],
      [
        "tr",
        "ọng"
      ],
      [
        "như",
        "ng"
      ],
      [
        "r",
        "ất"
      ],
      [
        "chuy",
        "ện"
      ],
      [
        "a",
        "ng"
      ],
      [
        "à",
        "nh"
      ],
      [
        "ự",
        "c"
      ],
      [
        "r",
        "a"
      ],
      [
        "â",
        "u"
      ],
      [
        "ph",
        "ải"
      ],
      [
        "iế",
        "n"
      ],
      [
        "a",
        "o"
      ],
      [
        "h",
        "ơn"
      ],
      [
        "nh",
        "é"
      ],
      [
        "iế",
        "t"
      ],
      [
        "v",
        "iệc"
      ],
      [
        "ti",
        "n"
      ],
      [
        "iể",
        "u"
      ],
      [
        "i",
        "a"
      ],
      [
        "ạ",
        "nh"
      ],
      [
        "m",
        "à"
      ],
      [
        "ì",
        "m"
      ],
      [
        "c",
        "ần"
      ],
      [
        "kh",
        "ó"
      ],
      [
        "ò",
        "ng"
      ],
      [
        "qu",
        "á"
      ],
      [
        "u",
        "ố"
      ],
      [
        "đ",
        "ang"
      ],
      [
        "h",
        "iểu"
      ],
      [
        "ỗ",
        "i"
      ],
      [
        "s",
        "ợ"
      ],
      [
        "ô",
        "i"
      ],
      [
        "ẫ",
        "n"
      ],
      [
        "ặ",
        "c"
      ],
      [
        "gi",
        "an"
      ],
      [
        "t",
        "ìm"
      ],
      [
        "và",
        "o"
      ],
      [
        "th",
        "ương"
      ],
      [
        "kh",
        "ác"
      ],
      [
        "h",
        "ay"
      ],
      [
        "b",
        "ị"
      ],
      [
        "th",
        "ời"
      ],
      [
        "ộ",
        "c"
      ],
      [
        "ữ",
        "a"
      ],
      [
        "ả",
        "m"
      ],
      [
        "l",
        "òng"
      ],
      [
        "l",
        "ắ"
      ],
      [
        "u",
        "ng"
      ],
      [
        "V",
        "iệc"
      ],
      [
        "th",
        "ử"
      ],
      [
        "í",
        "ch"
      ],
      [
        "à",
        "ng"
      ],
      [
        "x",
        "úc"
      ],
      [
        "ù",
        "ng"
      ],
      [
        "kh",
        "iến"
      ],
      [
        "ch",
        "ia"
      ],
      [
        "ỏ",
        "i"
      ],
      [
        "uố",
        "n"
      ],
      [
        "nh",
        "ận"
      ],
      [
        "C",
        "ảm"
      ],
      [
        "ừ",
        "ng"
      ],
      [
        "ộ",
        "i"
      ],
      [
        "đ",
        "i"
      ],
      [
        "t",
        "ớ"
      ],
      [
        "b",
        "iết"
      ],
      [
        "â",
        "y"
      ],
      [
        "à",
        "n"
      ],
      [
        "m",
        "uốn"
      ],
      [
        "ế",
        "n"
      ],
      [
        "t",
        "ự"
      ],
      [
        "s",
        "ao"
      ],
      [
        "e",
        "m"
      ],
      [
        "iệ",
        "n"
      ],
      [
        "v",
        "ì"
      ],
      [
        "ố",
        "ng"
      ],
      [
        "ế",
        "u"
      ],
      [
        "ho",
        "ặc"
      ],
      [
        "ằ",
        "ng"
      ],
      [
        "đ",
        "ến"
      ],
      [
        "c",
        "ứ"
      ],
      [
        "T",
        "ớ"
      ],
      [
        "u",
        "ộc"
      ],
      [
        "x",
        "em"
      ],
      [
        "ậ",
        "p"
      ],
      [
        "s",
        "ẽ"
      ],
      [
        "ư",
        "ớ"
      ],
      [
        "đ",
        "ã"
      ],
      [
        "ổ",
        "n"
      ],
      [
        "nh",
        "iều"
      ],
      [
        "ồ",
        "i"
      ],
      [
        "c",
        "ùng"
      ],
      [
        "th",
        "ích"
      ],
      [
        "g",
        "ì"
      ],
      [
        "cũ",
        "ng"
      ],
      [
        "đ",
        "ầ"
      ],
      [
        "ờ",
        "ng"
      ],
      [
        "i",
        "ên"
      ],
      [
        "ắ",
        "n"
      ],
      [
        "ặ",
        "t"
      ],
      [
        "ò",
        "n"
      ],
      [
        "đ",
        "á"
      ],
      [
        "ch",
        "ỉ"
      ],
      [
        "ư",
        "ờng"
      ],
      [
        "ngh",
        "ĩ"
      ],
      [
        "là",
        "nh"
      ],
      [
        "đ",
        "ối"
      ],
      [
        "qu",
        "a"
      ],
      [
        "ô",
        "n"
      ],
      [
        "ã",
        "i"
      ],
      [
        "â",
        "m"
      ],
      [
        "á",
        "i"
      ],
      [
        "à",
        "i"
      ],
      [
        "C",
        "ậu"
      ],
      [
        "á",
        "t"
      ],
      [
        "ắ",
        "c"
      ],
      [
        "t",
        "ố"
      ],
      [
        "ă",
        "n"
      ],
      [
        "i",
        "ê"
      ],
      [
        "ư",
        "ở"
      ],
      [
        "ưở",
        "ng"
      ],
      [
        "l",
        "úc"
      ],
      [
        "ướ",
        "c"
      ],
      [
        "k",
        "ết"
      ],
      [
        "đầ",
        "u"
      ],
      [
        "c",
        "òn"
      ],
      [
        "đ",
        "ề"
      ],
      [
        "t",
        "âm"
      ],
      [
        "nà",
        "o"
      ],
      [
        "í",
        "nh"
      ],
      [
        "N",
        "h"
      ],
      [
        "t",
        "ổn"
      ],
      [
        "v",
        "ẫn"
      ],
      [
        "ơ",
        "i"
      ],
      [
        "t",
        "iế"
      ],
      [
        "nh",
        "ất"
      ],
      [
        "ứ",
        "ng"
      ],
      [
        "ứ",
        "c"
      ],
      [
        "iệ",
        "t"
      ],
      [
        "s",
        "ẻ"
      ],
      [
        "n",
        "ên"
      ],
      [
        "ạ",
        "ng"
      ],
      [
        "iể",
        "m"
      ],
      [
        "ặ",
        "p"
      ],
      [
        "tố",
        "t"
      ],
      [
        "m",
        "ới"
      ],
      [
        "à",
        "y"
      ],
      [
        "l",
        "ực"
      ],
      [
        "th",
        "ành"
      ],
      [
        "r",
        "ồi"
      ],
      [
        "ậ",
        "y"
      ],
      [
        "C",
        "ứ"
      ],
      [
        "iệ",
        "u"
      ],
      [
        "c",
        "uộc"
      ],
      [
        "ch",
        "ính"
      ],
      [
        "ư",
        "a"
      ],
      [
        "s",
        "au"
      ],
      [
        "th",
        "ực"
      ],
      [
        "lắ",
        "ng"
      ],
      [
        "đ",
        "ộ"
      ],
      [
        "h",
        "ội"
      ],
      [
        "v",
        "ậy"
      ],
      [
        "h",
        "iện"
      ],
      [
        "đ",
        "ơn"
      ],
      [
        "t",
        "ay"
      ],
      [
        "đá",
        "ng"
      ],
      [
        "ọ",
        "i"
      ],
      [
        "d",
        "ễ"
      ],
      [
        "tiế",
        "p"
      ],
      [
        "đ",
        "ị"
      ],
      [
        "th",
        "ường"
      ],
      [
        "m",
        "ạnh"
      ],
      [
        "m",
        "ất"
      ],
      [
        "n",
        "ữa"
      ],
      [
        "s",
        "ống"
      ],
      [
        "r",
        "õ"
      ],
      [
        "m",
        "ạng"
      ],
      [
        "ph",
        "ương"
      ],
      [
        "b",
        "u"
      ],
      [
        "t",
        "o"
      ],
      [
        "lắ",
        "m"
      ],
      [
        "ắ",
        "t"
      ],
      [
        "l",
        "ời"
      ],
      [
        "b",
        "iệt"
      ],
      [
        "l",
        "ý"
      ],
      [
        "m",
        "ở"
      ],
      [
        "d",
        "ự"
      ],
      [
        "qu",
        "y"
      ],
      [
        "ồ",
        "n"
      ],
      [
        "h",
        "ãy"
      ],
      [
        "kh",
        "o"
      ],
      [
        "ắ",
        "ng"
      ],
      [
        "ệ",
        "t"
      ],
      [
        "o",
        "n"
      ],
      [
        "th",
        "ế"
      ],
      [
        "b",
        "ất"
      ],
      [
        "ẳ",
        "ng"
      ],
      [
        "b",
        "ình"
      ],
      [
        "ấ",
        "u"
      ],
      [
        "gi",
        "a"
      ],
      [
        "ú",
        "ng"
      ],
      [
        "ả",
        "nh"
      ],
      [
        "th",
        "ì"
      ],
      [
        "Đ",
        "ừng"
      ],
      [
        "gi",
        "ới"
      ],
      [
        "N",
        "ếu"
      ],
      [
        "iê",
        "ng"
      ],
      [
        "r",
        "iêng"
      ],
      [
        "th",
        "ôi"
      ],
      [
        "ả",
        "ng"
      ],
      [
        "e",
        "n"
      ],
      [
        "d",
        "ành"
      ],
      [
        "tr",
        "ên"
      ],
      [
        "x",
        "a"
      ],
      [
        "to",
        "àn"
      ],
      [
        "l",
        "o"
      ],
      [
        "đị",
        "nh"
      ],
      [
        "độ",
        "ng"
      ],
      [
        "c",
        "ố"
      ],
      [
        "tr",
        "ò"
      ],
      [
        "ớ",
        "n"
      ],
      [
        "tr",
        "ung"
      ],
      [
        "ả",
        "o"
      ],
      [
        "ph",
        "úc"
      ],
      [
        "ụ",
        "c"
      ],
      [
        "b",
        "è"
      ],
      [
        "b",
        "ằng"
      ],
      [
        "ấ",
        "n"
      ],
      [
        "N",
        "g"
      ],
      [
        "ổ",
        "i"
      ],
      [
        "K",
        "h"
      ],
      [
        "đ",
        "âu"
      ],
      [
        "ch",
        "ân"
      ],
      [
        "á",
        "nh"
      ],
      [
        "T",
        "ình"
      ],
      [
        "l",
        "ớn"
      ],
      [
        "m",
        "ọi"
      ],
      [
        "gi",
        "ữ"
      ],
      [
        "đ",
        "iểm"
      ],
      [
        "đ",
        "ủ"
      ],
      [
        "ch",
        "ưa"
      ],
      [
        "é",
        "p"
      ],
      [
        "m",
        "ỏi"
      ],
      [
        "t",
        "ưởng"
      ],
      [
        "m",
        "ệt"
      ],
      [
        "ho",
        "àn"
      ],
      [
        "quy",
        "ết"
      ],
      [
        "đ",
        "ình"
      ],
      [
        "ấ",
        "p"
      ],
      [
        "h",
        "ạnh"
      ],
      [
        "th",
        "o"
      ],
      [
        "l",
        "u"
      ],
      [
        "g",
        "ắng"
      ],
      [
        "m",
        "ong"
      ],
      [
        "e",
        "o"
      ],
      [
        "ngh",
        "e"
      ],
      [
        "kh",
        "ăn"
      ],
      [
        "th",
        "ẳng"
      ],
      [
        "gi",
        "ải"
      ],
      [
        "t",
        "ôn"
      ],
      [
        "r",
        "àng"
      ],
      [
        "t",
        "ập"
      ],
      [
        "dự",
        "ng"
      ],
      [
        "th",
        "ứ"
      ],
      [
        "t",
        "ương"
      ],
      [
        "ì",
        "n"
      ],
      [
        "S",
        "ự"
      ],
      [
        "ừ",
        "a"
      ],
      [
        "g",
        "ặp"
      ],
      [
        "đ",
        "au"
      ],
      [
        "d",
        "ù"
      ],
      [
        "x",
        "ã"
      ],
      [
        "h",
        "ỏi"
      ],
      [
        "ị",
        "u"
      ],
      [
        "r",
        "ằng"
      ],
      [
        "á",
        "m"
      ],
      [
        "Ng",
        "ười"
      ],
      [
        "bu",
        "ồn"
      ],
      [
        "ú",
        "t"
      ],
      [
        "nh",
        "ỏ"
      ],
      [
        "l",
        "ần"
      ],
      [
        "v",
        "ấn"
      ],
      [
        "v",
        "u"
      ],
      [
        "d",
        "o"
      ],
      [
        "t",
        "ỏ"
      ],
      [
        "n",
        "ối"
      ],
      [
        "đ",
        "úng"
      ],
      [
        "x",
        "ây"
      ],
      [
        "b",
        "ên"
      ],
      [
        "á",
        "p"
      ],
      [
        "ă",
        "ng"
      ],
      [
        "nh",
        "ìn"
      ],
      [
        "c",
        "on"
      ],
      [
        "ư",
        "ng"
      ],
      [
        "ph",
        "ản"
      ],
      [
        "á",
        "ch"
      ],
      [
        "s",
        "o"
      ],
      [
        "h",
        "ợ"
      ],
      [
        "ch",
        "ịu"
      ],
      [
        "ọ",
        "n"
      ],
      [
        "iề",
        "m"
      ],
      [
        "hợ",
        "p"
      ],
      [
        "th",
        "ay"
      ],
      [
        "b",
        "ắt"
      ],
      [
        "s",
        "âu"
      ],
      [
        "kho",
        "ảng"
      ],
      [
        "Q",
        "u"
      ],
      [
        "ồ",
        "ng"
      ],
      [
        "th",
        "u"
      ],
      [
        "h",
        "ành"
      ],
      [
        "C",
        "ó"
      ],
      [
        "đ",
        "ôi"
      ],
      [
        "Nh",
        "ưng"
      ],
      [
        "gi",
        "ờ"
      ],
      [
        "b",
        "ỏ"
      ],
      [
        "t",
        "ạ"
      ],
      [
        "th",
        "eo"
      ],
      [
        "c",
        "ông"
      ],
      [
        "l",
        "ai"
      ],
      [
        "n",
        "ếu"
      ],
      [
        "tr",
        "ước"
      ],
      [
        "m",
        "ỗi"
      ],
      [
        "nh",
        "iên"
      ],
      [
        "x",
        "ứng"
      ],
      [
        "iế",
        "u"
      ],
      [
        "th",
        "ắn"
      ],
      [
        "s",
        "uy"
      ],
      [
        "gi",
        "á"
      ],
      [
        "d",
        "ần"
      ],
      [
        "v",
        "ọng"
      ],
      [
        "ti",
        "m"
      ],
      [
        "t",
        "ại"
      ],
      [
        "i",
        "nh"
      ],
      [
        "ng",
        "ày"
      ],
      [
        "iệ",
        "m"
      ],
      [
        "th",
        "iếu"
      ],
      [
        "ẹ",
        "p"
      ],
      [
        "ph",
        "át"
      ],
      [
        "l",
        "ẽ"
      ],
      [
        "T",
        "h"
      ],
      [
        "h",
        "ình"
      ],
      [
        "Qu",
        "an"
      ],
      [
        "n",
        "iềm"
      ],
      [
        "ch",
        "ữa"
      ],
      [
        "ặ",
        "ng"
      ],
      [
        "ph",
        "ép"
      ],
      [
        "a",
        "nh"
      ],
      [
        "họ",
        "c"
      ],
      [
        "từ",
        "ng"
      ],
      [
        "m",
        "ãi"
      ],
      [
        "ng",
        "o"
      ],
      [
        "m",
        "ặt"
      ],
      [
        "ú",
        "p"
      ],
      [
        "đ",
        "ẹp"
      ],
      [
        "gi",
        "úp"
      ],
      [
        "ti",
        "êu"
      ],
      [
        "ch",
        "ấp"
      ],
      [
        "ẵ",
        "n"
      ],
      [
        "s",
        "ẵn"
      ],
      [
        "đề",
        "u"
      ],
      [
        "s",
        "àng"
      ],
      [
        "c",
        "ân"
      ],
      [
        "Đ",
        "ôi"
      ],
      [
        "l",
        "âu"
      ],
      [
        "g",
        "h"
      ],
      [
        "ạ",
        "t"
      ],
      [
        "đ",
        "ổi"
      ],
      [
        "b",
        "ước"
      ],
      [
        "l",
        "ỗi"
      ],
      [
        "l",
        "iên"
      ],
      [
        "ph",
        "í"
      ],
      [
        "đ",
        "ây"
      ],
      [
        "C",
        "h"
      ],
      [
        "nh",
        "ắn"
      ],
      [
        "t",
        "a"
      ],
      [
        "ạ",
        "c"
      ],
      [
        "Kh",
        "i"
      ],
      [
        "l",
        "iệu"
      ],
      [
        "iế",
        "m"
      ],
      [
        "đ",
        "ặt"
      ],
      [
        "D",
        "ù"
      ],
      [
        "vu",
        "i"
      ],
      [
        "G",
        "i"
      ],
      [
        "kh",
        "ứ"
      ],
      [
        "gi",
        "ữa"
      ],
      [
        "ch",
        "ung"
      ],
      [
        "lu",
        "ôn"
      ],
      [
        "c",
        "ơ"
      ],
      [
        "nh",
        "ân"
      ],
      [
        "tr",
        "ái"
      ],
      [
        "đ",
        "ừng"
      ],
      [
        "phí",
        "a"
      ],
      [
        "đ",
        "ộc"
      ],
      [
        "th",
        "iết"
      ],
      [
        "l",
        "ên"
      ],
      [
        "d",
        "ài"
      ],
      [
        "b",
        "ày"
      ],
      [
        "c",
        "ãi"
      ],
      [
        "ề",
        "n"
      ],
      [
        "đ",
        "ồng"
      ],
      [
        "Y",
        "êu"
      ],
      [
        "M",
        "ối"
      ],
      [
        "à",
        "o"
      ],
      [
        "Nh",
        "ững"
      ],
      [
        "k",
        "iếm"
      ],
      [
        "tr",
        "ị"
      ],
      [
        "d",
        "iện"
      ],
      [
        "uy",
        "ên"
      ],
      [
        "m",
        "ái"
      ],
      [
        "tho",
        "ải"
      ],
      [
        "M",
        "ột"
      ],
      [
        "x",
        "ử"
      ],
      [
        "n",
        "ỗi"
      ],
      [
        "ngo",
        "ài"
      ],
      [
        "ch",
        "út"
      ],
      [
        "ứ",
        "t"
      ],
      [
        "Đ",
        "iều"
      ],
      [
        "à",
        "m"
      ],
      [
        "ra",
        "nh"
      ],
      [
        "iê",
        "m"
      ],
      [
        "ngh",
        "iêm"
      ],
      [
        "thu",
        "ẫn"
      ],
      [
        "v",
        "ừa"
      ],
      [
        "l",
        "ập"
      ],
      [
        "t",
        "ục"
      ],
      [
        "tr",
        "ình"
      ],
      [
        "ă",
        "m"
      ],
      [
        "tr",
        "ở"
      ],
      [
        "h",
        "iệu"
      ],
      [
        "c",
        "ô"
      ],
      [
        "ẩ",
        "n"
      ],
      [
        "th",
        "ấu"
      ],
      [
        "h",
        "ưởng"
      ],
      [
        "đ",
        "ặc"
      ],
      [
        "m",
        "âu"
      ],
      [
        "s",
        "ắc"
      ],
      [
        "v",
        "ô"
      ],
      [
        "iể",
        "n"
      ],
      [
        "t",
        "u"
      ],
      [
        "tạ",
        "o"
      ],
      [
        "ch",
        "ọn"
      ],
      [
        "ng",
        "ại"
      ],
      [
        "L",
        "àm"
      ],
      [
        "ầ",
        "m"
      ],
      [
        "l",
        "ạc"
      ],
      [
        "é",
        "o"
      ],
      [
        "ượ",
        "ng"
      ],
      [
        "ở",
        "i"
      ],
      [
        "ê",
        "m"
      ],
      [
        "nh",
        "ẹ"
      ],
      [
        "t",
        "úc"
      ],
      [
        "gh",
        "en"
      ],
      [
        "b",
        "ảo"
      ],
      [
        "tr",
        "ân"
      ],
      [
        "nh",
        "ớ"
      ],
      [
        "nghĩ",
        "a"
      ],
      [
        "h",
        "ãi"
      ],
      [
        "M",
        "ỗi"
      ],
      [
        "v",
        "ẻ"
      ],
      [
        "n",
        "ăng"
      ],
      [
        "cá",
        "i"
      ],
      [
        "tr",
        "iển"
      ],
      [
        "i",
        "m"
      ],
      [
        "ạ",
        "ch"
      ],
      [
        "iệ",
        "p"
      ],
      [
        "cả",
        "n"
      ],
      [
        "v",
        "ệ"
      ],
      [
        "ượ",
        "t"
      ],
      [
        "h",
        "ết"
      ],
      [
        "s",
        "ở"
      ],
      [
        "h",
        "ò"
      ],
      [
        "ủ",
        "i"
      ],
      [
        "l",
        "ặng"
      ],
      [
        "á",
        "n"
      ],
      [
        "th",
        "êm"
      ],
      [
        "r",
        "ối"
      ],
      [
        "v",
        "ượt"
      ],
      [
        "k",
        "iểm"
      ],
      [
        "l",
        "ặp"
      ],
      [
        "tr",
        "ải"
      ],
      [
        "m",
        "ang"
      ],
      [
        "k",
        "ỹ"
      ],
      [
        "gi",
        "ống"
      ],
      [
        "qu",
        "en"
      ],
      [
        "h",
        "y"
      ],
      [
        "đ",
        "o"
      ],
      [
        "tr",
        "ánh"
      ],
      [
        "m",
        "ờ"
      ],
      [
        "c",
        "ực"
      ],
      [
        "ng",
        "ay"
      ],
      [
        "d",
        "ối"
      ],
      [
        "N",
        "ỗi"
      ],
      [
        "Ch",
        "ia"
      ],
      [
        "th",
        "uộc"
      ],
      [
        "d",
        "ứt"
      ],
      [
        "s",
        "ai"
      ],
      [
        "ph",
        "ù"
      ],
      [
        "í",
        "t"
      ],
      [
        "ắ",
        "p"
      ],
      [
        "so",
        "át"
      ],
      [
        "Kh",
        "ông"
      ],
      [
        "uố",
        "ng"
      ],
      [
        "T",
        "r"
      ],
      [
        "ợ",
        "i"
      ],
      [
        "d",
        "ám"
      ],
      [
        "s",
        "ánh"
      ],
      [
        "nh",
        "àng"
      ],
      [
        "v",
        "ết"
      ],
      [
        "g",
        "ây"
      ],
      [
        "ẹ",
        "n"
      ],
      [
        "u",
        "ất"
      ],
      [
        "th",
        "ách"
      ],
      [
        "ch",
        "ủ"
      ],
      [
        "d",
        "ấu"
      ],
      [
        "ng",
        "ờ"
      ],
      [
        "kh",
        "ỏi"
      ],
      [
        "l",
        "ượng"
      ],
      [
        "qu",
        "ả"
      ],
      [
        "s",
        "ức"
      ],
      [
        "ngh",
        "iệp"
      ],
      [
        "nh",
        "ắc"
      ],
      [
        "qu",
        "ên"
      ],
      [
        "x",
        "é"
      ],
      [
        "T",
        "hay"
      ],
      [
        "ả",
        "y"
      ],
      [
        "m",
        "ục"
      ],
      [
        "k",
        "ỳ"
      ],
      [
        "ngh",
        "iệm"
      ],
      [
        "s",
        "ó"
      ],
      [
        "c",
        "âu"
      ],
      [
        "h",
        "ộ"
      ],
      [
        "tr",
        "ách"
      ],
      [
        "l",
        "ạnh"
      ],
      [
        "m",
        "ập"
      ],
      [
        "ứ",
        "a"
      ],
      [
        "k",
        "iên"
      ],
      [
        "N",
        "ó"
      ],
      [
        "x",
        "uyên"
      ],
      [
        "ngh",
        "i"
      ],
      [
        "l",
        "ừa"
      ],
      [
        "B",
        "ạn"
      ],
      [
        "t",
        "ư"
      ],
      [
        "ch",
        "ứ"
      ],
      [
        "S",
        "au"
      ],
      [
        "ướ",
        "ng"
      ],
      [
        "tr",
        "í"
      ],
      [
        "gi",
        "ao"
      ],
      [
        "ch",
        "ắc"
      ],
      [
        "th",
        "úc"
      ],
      [
        "t",
        "ế"
      ],
      [
        "a",
        "m"
      ],
      [
        "t",
        "iến"
      ],
      [
        "gi",
        "ận"
      ],
      [
        "ho",
        "ạch"
      ],
      [
        "k",
        "ế"
      ],
      [
        "T",
        "uy"
      ],
      [
        "đ",
        "ấy"
      ],
      [
        "v",
        "ội"
      ],
      [
        "tr",
        "anh"
      ],
      [
        "C",
        "ái"
      ],
      [
        "đ",
        "ời"
      ],
      [
        "n",
        "ỗ"
      ],
      [
        "đầ",
        "y"
      ],
      [
        "m",
        "ẽ"
      ],
      [
        "d",
        "ừng"
      ],
      [
        "b",
        "ội"
      ],
      [
        "h",
        "ướng"
      ],
      [
        "nh",
        "ỉ"
      ],
      [
        "t",
        "ội"
      ],
      [
        "l",
        "ự"
      ],
      [
        "ch",
        "ất"
      ],
      [
        "b",
        "ối"
      ],
      [
        "t",
        "ủi"
      ],
      [
        "õ",
        "i"
      ],
      [
        "v",
        "ững"
      ],
      [
        "d",
        "uy"
      ],
      [
        "m",
        "ức"
      ],
      [
        "iề",
        "n"
      ],
      [
        "gi",
        "ản"
      ],
      [
        "hò",
        "a"
      ],
      [
        "ph",
        "ần"
      ],
      [
        "tu",
        "ông"
      ],
      [
        "lự",
        "a"
      ],
      [
        "d",
        "ay"
      ],
      [
        "h",
        "ỗ"
      ],
      [
        "k",
        "ỷ"
      ],
      [
        "y",
        "ên"
      ],
      [
        "xé",
        "t"
      ],
      [
        "g",
        "ần"
      ],
      [
        "l",
        "ầm"
      ],
      [
        "b",
        "iến"
      ],
      [
        "tr",
        "ợ"
      ],
      [
        "ph",
        "á"
      ],
      [
        "ộ",
        "n"
      ],
      [
        "ti",
        "ên"
      ],
      [
        "nh",
        "a"
      ],
      [
        "l",
        "ẫn"
      ],
      [
        "b",
        "ao"
      ],
      [
        "đ",
        "ưa"
      ],
      [
        "ủ",
        "ng"
      ],
      [
        "đ",
        "ắp"
      ],
      [
        "qua",
        "nh"
      ],
      [
        "m",
        "inh"
      ],
      [
        "i",
        "n"
      ],
      [
        "bu",
        "ông"
      ],
      [
        "nh",
        "ặt"
      ],
      [
        "tr",
        "ống"
      ],
      [
        "b",
        "ận"
      ],
      [
        "ậ",
        "m"
      ],
      [
        "u",
        "ối"
      ],
      [
        "ũ",
        "ng"
      ],
      [
        "nh",
        "ẫn"
      ],
      [
        "c",
        "ác"
      ],
      [
        "C",
        "ùng"
      ],
      [
        "vu",
        "n"
      ],
      [
        "tr",
        "ì"
      ],
      [
        "c",
        "ạnh"
      ],
      [
        "x",
        "ung"
      ],
      [
        "ch",
        "ơi"
      ],
      [
        "đá",
        "nh"
      ],
      [
        "ạ",
        "y"
      ],
      [
        "dự",
        "a"
      ],
      [
        "r",
        "ào"
      ],
      [
        "Th",
        "ử"
      ],
      [
        "h",
        "ạn"
      ],
      [
        "n",
        "iệm"
      ],
      [
        "ụ",
        "t"
      ],
      [
        "ph",
        "ụ"
      ],
      [
        "nh",
        "ạt"
      ],
      [
        "và",
        "ng"
      ],
      [
        "đ",
        "ường"
      ],
      [
        ".",
        "."
      ],
      [
        "ch",
        "ăm"
      ],
      [
        "th",
        "ất"
      ],
      [
        "ĩ",
        "nh"
      ],
      [
        "b",
        "ởi"
      ],
      [
        "só",
        "c"
      ],
      [
        "m",
        "ật"
      ],
      [
        "b",
        "uộc"
      ],
      [
        "y",
        "ếu"
      ],
      [
        "v",
        "ị"
      ],
      [
        "k",
        "éo"
      ],
      [
        "n",
        "ặng"
      ],
      [
        "x",
        "uất"
      ],
      [
        "lu",
        "ận"
      ],
      [
        "d",
        "ũng"
      ],
      [
        "ã",
        "ng"
      ],
      [
        "d",
        "õi"
      ],
      [
        "h",
        "ơi"
      ],
      [
        "ễ",
        "n"
      ],
      [
        "n",
        "ơi"
      ],
      [
        "h",
        "ảo"
      ],
      [
        "L",
        "iệu"
      ],
      [
        "ạ",
        "o"
      ],
      [
        "uy",
        "ết"
      ],
      [
        "ó",
        "i"
      ],
      [
        "i",
        "ễn"
      ],
      [
        "r",
        "ơi"
      ],
      [
        "ò",
        "i"
      ],
      [
        "ụ",
        "i"
      ],
      [
        "c",
        "àng"
      ],
      [
        "t",
        "ĩnh"
      ],
      [
        "x",
        "ảy"
      ],
      [
        "ố",
        "c"
      ],
      [
        "đ",
        "ứa"
      ],
      [
        "ư",
        "u"
      ],
      [
        "ch",
        "úng"
      ],
      [
        "h",
        "uống"
      ],
      [
        "n",
        "é"
      ],
      [
        "đ",
        "òi"
      ],
      [
        "d",
        "ụ"
      ],
      [
        "h",
        "ồi"
      ],
      [
        "tho",
        "át"
      ],
      [
        "ng",
        "ột"
      ],
      [
        "ử",
        "a"
      ],
      [
        "kh",
        "ổ"
      ],
      [
        "v",
        "ặt"
      ],
      [
        "gi",
        "ảm"
      ],
      [
        "ch",
        "ứng"
      ],
      [
        "t",
        "ức"
      ],
      [
        "v",
        "ã"
      ],
      [
        "t",
        "ất"
      ],
      [
        "b",
        "í"
      ],
      [
        "r",
        "ộn"
      ],
      [
        "d",
        "iễn"
      ],
      [
        "ằ",
        "n"
      ],
      [
        "c",
        "ởi"
      ],
      [
        "ch",
        "ắn"
      ],
      [
        "l",
        "ỡ"
      ],
      [
        "b",
        "ó"
      ],
      [
        "l",
        "ãng"
      ],
      [
        "s",
        "inh"
      ],
      [
        "t",
        "ác"
      ],
      [
        "kh",
        "ám"
      ],
      [
        "g",
        "ọi"
      ],
      [
        "đị",
        "a"
      ],
      [
        "ti",
        "nh"
      ],
      [
        "Á",
        "p"
      ],
      [
        "í",
        "n"
      ],
      [
        "'",
        "."
      ],
      [
        "kh",
        "ả"
      ],
      [
        "h",
        "ụt"
      ],
      [
        "ng",
        "ạt"
      ],
      [
        "d",
        "ằn"
      ],
      [
        "kh",
        "ắc"
      ],
      [
        "Gi",
        "ờ"
      ],
      [
        "h",
        "ẫ"
      ],
      [
        "hẫ",
        "ng"
      ],
      [
        "đo",
        "án"
      ],
      [
        "ầ",
        "u"
      ],
      [
        "S",
        "ợ"
      ],
      [
        "b",
        "ền"
      ],
      [
        "h",
        "a"
      ],
      [
        "tr",
        "ực"
      ],
      [
        "tr",
        "ọn"
      ],
      [
        "D",
        "ần"
      ],
      [
        "b",
        "ài"
      ],
      [
        "h",
        "ẹn"
      ],
      [
        "kho",
        "ăn"
      ],
      [
        "b",
        "ăn"
      ],
      [
        "th",
        "ức"
      ],
      [
        "v",
        "ẹn"
      ],
      [
        "s",
        "át"
      ],
      [
        "ng",
        "ăn"
      ],
      [
        "c",
        "ặp"
      ],
      [
        "ph",
        "ổ"
      ],
      [
        "b",
        "ức"
      ],
      [
        "Gi",
        "ao"
      ],
      [
        "đ",
        "iện"
      ],
      [
        "m",
        "òn"
      ],
      [
        "đ",
        "ợi"
      ],
      [
        "cả",
        "nh"
      ],
      [
        "Ô",
        "i"
      ],
      [
        "ớ",
        "t"
      ],
      [
        "th",
        "ú"
      ],
      [
        "đo",
        "ạn"
      ],
      [
        "ư",
        "ỡ"
      ],
      [
        "Tr",
        "ong"
      ],
      [
        "t",
        "ệ"
      ],
      [
        "ph",
        "ức"
      ],
      [
        "C",
        "ả"
      ],
      [
        "th",
        "ần"
      ],
      [
        "g",
        "ắn"
      ],
      [
        "ch",
        "ờ"
      ],
      [
        "kho",
        "ảnh"
      ],
      [
        "k",
        "iến"
      ],
      [
        "quy",
        "ền"
      ],
      [
        "tạ",
        "p"
      ],
      [
        "v",
        "ỡ"
      ],
      [
        "kh",
        "ai"
      ],
      [
        "c",
        "ầu"
      ],
      [
        "t",
        "ích"
      ],
      [
        "ch",
        "u"
      ],
      [
        "c",
        "am"
      ],
      [
        "b",
        "ớt"
      ],
      [
        "g",
        "ỡ"
      ],
      [
        "kh",
        "á"
      ],
      [
        "b",
        "ã"
      ],
      [
        "ỗ",
        "ng"
      ],
      [
        "m",
        "ạn"
      ],
      [
        "tr",
        "ả"
      ],
      [
        "nó",
        "ng"
      ],
      [
        "d",
        "ung"
      ],
      [
        "l",
        "ung"
      ],
      [
        "B",
        "ắt"
      ],
      [
        "ớ",
        "m"
      ],
      [
        "ấ",
        "m"
      ],
      [
        "ưỡ",
        "ng"
      ],
      [
        "gi",
        "ấu"
      ],
      [
        "ẹ",
        "o"
      ],
      [
        "s",
        "ẹo"
      ],
      [
        "ch",
        "ú"
      ],
      [
        "qu",
        "ý"
      ],
      [
        "gi",
        "ai"
      ],
      [
        "ng",
        "ồi"
      ],
      [
        "tr",
        "ạng"
      ],
      [
        "ng",
        "uyên"
      ],
      [
        "ì",
        "a"
      ],
      [
        "v",
        "i"
      ],
      [
        "đ",
        "ổ"
      ],
      [
        "ằ",
        "m"
      ],
      [
        "n",
        "ằm"
      ],
      [
        "khó",
        "a"
      ],
      [
        "h",
        "ài"
      ],
      [
        "th",
        "a"
      ],
      [
        "đá",
        "p"
      ],
      [
        "ph",
        "ân"
      ],
      [
        "chu",
        "ẩn"
      ],
      [
        "k",
        "ia"
      ],
      [
        "t",
        "ắc"
      ],
      [
        "ch",
        "ẳng"
      ],
      [
        "t",
        "ảng"
      ],
      [
        "t",
        "ài"
      ],
      [
        "T",
        "ập"
      ],
      [
        "c",
        "o"
      ],
      [
        "Đ",
        "ây"
      ],
      [
        "g",
        "ánh"
      ],
      [
        "h",
        "àng"
      ],
      [
        "m",
        "ẻ"
      ],
      [
        "th",
        "ói"
      ],
      [
        "n",
        "ản"
      ],
      [
        "H",
        "o"
      ],
      [
        "t",
        "uy"
      ],
      [
        "r",
        "ỗng"
      ],
      [
        "t",
        "ới"
      ],
      [
        "tr",
        "ưởng"
      ],
      [
        "H",
        "ọ"
      ],
      [
        "l",
        "in"
      ],
      [
        "lin",
        "e"
      ],
      [
        "kh",
        "í"
      ],
      [
        "n",
        "ền"
      ],
      [
        "ch",
        "ìa"
      ],
      [
        "t",
        "ụi"
      ],
      [
        "nh",
        "ạy"
      ],
      [
        "t",
        "ính"
      ],
      [
        "n",
        "ăm"
      ],
      [
        "é",
        "n"
      ],
      [
        "T",
        "ìm"
      ],
      [
        "ị",
        "ch"
      ],
      [
        "c",
        "ăng"
      ],
      [
        "chuy",
        "ên"
      ],
      [
        "tu",
        "ổi"
      ],
      [
        "d",
        "àng"
      ],
      [
        "k",
        "ể"
      ],
      [
        "á",
        "ng"
      ],
      [
        "x",
        "uống"
      ],
      [
        "m",
        "ắc"
      ],
      [
        "kh",
        "ỏ"
      ],
      [
        "dụ",
        "ng"
      ],
      [
        "m",
        "ẹ"
      ],
      [
        "ng",
        "u"
      ],
      [
        "khỏ",
        "e"
      ],
      [
        "Th",
        "ích"
      ],
      [
        "k",
        "inh"
      ],
      [
        "on",
        "line"
      ],
      [
        "tiế",
        "ng"
      ],
      [
        "s",
        "ớm"
      ],
      [
        "d",
        "ẫn"
      ],
      [
        "h",
        "ẳ"
      ],
      [
        "đ",
        "ứng"
      ],
      [
        "hẳ",
        "n"
      ],
      [
        "ch",
        "iến"
      ],
      [
        "Ho",
        "ặc"
      ],
      [
        "ó",
        "a"
      ],
      [
        "tiế",
        "c"
      ],
      [
        "l",
        "ấy"
      ],
      [
        "bó",
        "ng"
      ],
      [
        "Đ",
        "ó"
      ],
      [
        "tuy",
        "ệt"
      ],
      [
        "k",
        "iểu"
      ],
      [
        "..",
        "."
      ],
      [
        "th",
        "ảo"
      ],
      [
        "P",
        "h"
      ],
      [
        "l",
        "én"
      ],
      [
        "kh",
        "uyết"
      ],
      [
        "'",
        ","
      ],
      [
        "l",
        "ấp"
      ],
      [
        "ch",
        "i"
      ],
      [
        "v",
        "òng"
      ],
      [
        "b",
        "an"
      ],
      [
        "m",
        "ơ"
      ],
      [
        "đ",
        "u"
      ],
      [
        "v",
        "iết"
      ],
      [
        "ph",
        "áp"
      ],
      [
        "en",
        "d"
      ],
      [
        "r",
        "i"
      ],
      [
        "ri",
        "end"
      ],
      [
        "đ",
        "ăng"
      ],
      [
        "l",
        "út"
      ],
      [
        "qu",
        "ay"
      ],
      [
        "ho",
        "ạt"
      ],
      [
        ")",
        "."
      ],
      [
        "á",
        "o"
      ],
      [
        "co",
        "i"
      ],
      [
        "k",
        "iệt"
      ],
      [
        "on",
        "e"
      ],
      [
        "b",
        "ạch"
      ],
      [
        "z",
        "one"
      ],
      [
        "t",
        "ín"
      ],
      [
        "ẹ",
        "t"
      ],
      [
        "riend",
        "zone"
      ],
      [
        "b",
        "ạc"
      ],
      [
        "s",
        "uất"
      ],
      [
        "ch",
        "ối"
      ],
      [
        "c",
        "uối"
      ],
      [
        "ph",
        "ục"
      ],
      [
        "bu",
        "ổi"
      ],
      [
        "như",
        "ờng"
      ],
      [
        "ch",
        "ậm"
      ],
      [
        "kh",
        "éo"
      ],
      [
        "m",
        "ấy"
      ],
      [
        "tho",
        "ại"
      ],
      [
        "gh",
        "ê"
      ],
      [
        "n",
        "ảy"
      ],
      [
        "r",
        "ung"
      ],
      [
        "v",
        "ật"
      ],
      [
        "b",
        "ào"
      ],
      [
        "ng",
        "ừng"
      ],
      [
        "ê",
        "nh"
      ],
      [
        "õ",
        "ng"
      ],
      [
        "l",
        "õng"
      ],
      [
        "T",
        "ừng"
      ],
      [
        "uố",
        "t"
      ],
      [
        "đ",
        "ích"
      ],
      [
        "t",
        "ần"
      ],
      [
        "th",
        "ăm"
      ],
      [
        "B",
        "ị"
      ],
      [
        "D",
        "ành"
      ],
      [
        "f",
        "riendzone"
      ],
      [
        "tạ",
        "m"
      ],
      [
        "s",
        "uốt"
      ],
      [
        "t",
        "an"
      ],
      [
        "Ph",
        "ải"
      ],
      [
        "h",
        "ồn"
      ],
      [
        "đu",
        "ổi"
      ],
      [
        "hộ",
        "p"
      ],
      [
        "m",
        "ó"
      ],
      [
        "th",
        "ái"
      ],
      [
        "v",
        "í"
      ],
      [
        "h",
        "út"
      ],
      [
        "ch",
        "ế"
      ],
      [
        "ho",
        "ảng"
      ],
      [
        "l",
        "éo"
      ],
      [
        "thu",
        "ận"
      ],
      [
        "c",
        "ửa"
      ],
      [
        "ngo",
        "ại"
      ],
      [
        "qu",
        "ẩn"
      ],
      [
        "th",
        "ông"
      ],
      [
        "tỏ",
        "a"
      ],
      [
        "d",
        "eo"
      ],
      [
        "vi",
        "deo"
      ],
      [
        "b",
        "ố"
      ],
      [
        "v",
        "iên"
      ],
      [
        "K",
        "hoảng"
      ],
      [
        "l",
        "ưỡng"
      ],
      [
        "t",
        "ận"
      ],
      [
        "B",
        "iết"
      ],
      [
        "ch",
        "án"
      ],
      [
        "g",
        "ợi"
      ],
      [
        "tr",
        "ẻ"
      ],
      [
        "k",
        "ẹt"
      ],
      [
        "x",
        "ác"
      ],
      [
        "ù",
        "i"
      ],
      [
        "tr",
        "ang"
      ],
      [
        "th",
        "ỏ"
      ],
      [
        "t",
        "ung"
      ],
      [
        "ũ",
        "i"
      ],
      [
        "nh",
        "ị"
      ],
      [
        "ho",
        "ài"
      ],
      [
        "m",
        "anh"
      ],
      [
        "s",
        "ắp"
      ],
      [
        "nh",
        "iệm"
      ],
      [
        "V",
        "ết"
      ],
      [
        "t",
        "iền"
      ],
      [
        "m",
        "ắt"
      ],
      [
        "t",
        "ường"
      ],
      [
        "ư",
        "ới"
      ],
      [
        "v",
        "ời"
      ],
      [
        "g",
        "ũi"
      ],
      [
        "lu",
        "ẩn"
      ],
      [
        "ọ",
        "t"
      ],
      [
        "s",
        "áng"
      ],
      [
        "v",
        "ùng"
      ],
      [
        "th",
        "iện"
      ],
      [
        "H",
        "ạnh"
      ],
      [
        "k",
        "ý"
      ],
      [
        "l",
        "ùi"
      ],
      [
        "ỉ",
        "nh"
      ],
      [
        "r",
        "o"
      ],
      [
        "T",
        "ụi"
      ],
      [
        "ố",
        "n"
      ],
      [
        "ng",
        "ọt"
      ],
      [
        "h",
        "ại"
      ],
      [
        "b",
        "ám"
      ],
      [
        "ù",
        "a"
      ],
      [
        "ph",
        "ai"
      ],
      [
        "Đ",
        "ể"
      ],
      [
        "h",
        "ối"
      ],
      [
        "l",
        "ợi"
      ],
      [
        "só",
        "t"
      ],
      [
        "Nó",
        "i"
      ],
      [
        "d",
        "ạn"
      ],
      [
        "l",
        "ay"
      ],
      [
        "đ",
        "ỡ"
      ],
      [
        "h",
        "ôn"
      ],
      [
        "ng",
        "ào"
      ],
      [
        "ngh",
        "ỉ"
      ],
      [
        "và",
        "i"
      ],
      [
        "L",
        "ắng"
      ],
      [
        "ch",
        "ạy"
      ],
      [
        "í",
        "u"
      ],
      [
        "r",
        "ủi"
      ],
      [
        "ch",
        "í"
      ],
      [
        "u",
        "ôi"
      ],
      [
        "l",
        "ối"
      ],
      [
        "thỏ",
        "a"
      ],
      [
        "ph",
        "òng"
      ],
      [
        "nh",
        "u"
      ],
      [
        "E",
        "m"
      ],
      [
        "l",
        "ịch"
      ],
      [
        "Qu",
        "á"
      ],
      [
        "ự",
        "ng"
      ],
      [
        "đ",
        "ựng"
      ],
      [
        "n",
        "ề"
      ],
      [
        "h",
        "ứa"
      ],
      [
        "Nh",
        "ìn"
      ],
      [
        "ế",
        "p"
      ],
      [
        "ỏ",
        "ng"
      ],
      [
        "ch",
        "e"
      ],
      [
        "t",
        "ôi"
      ],
      [
        "M",
        "ọi"
      ],
      [
        "r",
        "y"
      ],
      [
        "ử",
        "ng"
      ],
      [
        "Tr",
        "ái"
      ],
      [
        "th",
        "ống"
      ],
      [
        "b",
        "ây"
      ],
      [
        "c",
        "ậy"
      ],
      [
        "Ng",
        "ày"
      ],
      [
        "m",
        "ê"
      ],
      [
        "nh",
        "anh"
      ],
      [
        "ắ",
        "m"
      ],
      [
        "l",
        "ửng"
      ],
      [
        "ạ",
        "m"
      ],
      [
        "s",
        "to"
      ],
      [
        "sto",
        "ry"
      ],
      [
        "cả",
        "i"
      ],
      [
        "n",
        "è"
      ],
      [
        "né",
        "n"
      ],
      [
        "d",
        "ưới"
      ],
      [
        "đó",
        "ng"
      ],
      [
        "Th",
        "ấy"
      ],
      [
        "b",
        "ế"
      ],
      [
        "ộ",
        "ng"
      ],
      [
        "Đ",
        "ồng"
      ],
      [
        "h",
        "ào"
      ],
      [
        "đ",
        "uối"
      ],
      [
        "d",
        "ạo"
      ],
      [
        "g",
        "ốc"
      ],
      [
        "t",
        "ượng"
      ],
      [
        "ng",
        "ơi"
      ],
      [
        "n",
        "uôi"
      ],
      [
        "ọ",
        "c"
      ],
      [
        "nh",
        "ung"
      ],
      [
        "mà",
        "n"
      ],
      [
        "v",
        "ắng"
      ],
      [
        "l",
        "ửa"
      ],
      [
        "H",
        "ai"
      ],
      [
        "Q",
        "uyết"
      ],
      [
        "n",
        "íu"
      ],
      [
        "l",
        "ùng"
      ],
      [
        "t",
        "ồn"
      ],
      [
        "x",
        "ếp"
      ],
      [
        "c",
        "uốn"
      ],
      [
        "h",
        "ứng"
      ],
      [
        "ngu",
        "ồn"
      ],
      [
        "đ",
        "ậm"
      ],
      [
        "h",
        "óa"
      ],
      [
        "c",
        "ắt"
      ],
      [
        "s",
        "ố"
      ],
      [
        "ng",
        "ữ"
      ],
      [
        "đ",
        "eo"
      ],
      [
        "uy",
        "ền"
      ],
      [
        "M",
        "ạng"
      ],
      [
        "t",
        "ỵ"
      ],
      [
        "nh",
        "iệt"
      ],
      [
        "b",
        "a"
      ],
      [
        "ng",
        "ắn"
      ],
      [
        "n",
        "ước"
      ],
      [
        "Th",
        "ời"
      ],
      [
        "đ",
        "am"
      ],
      [
        "A",
        "i"
      ],
      [
        "M",
        "uốn"
      ],
      [
        "c",
        "ẩn"
      ],
      [
        "C",
        "ho"
      ],
      [
        "x",
        "ấu"
      ],
      [
        "b",
        "ọn"
      ],
      [
        "l",
        "ơ"
      ],
      [
        "tr",
        "ời"
      ],
      [
        "ph",
        "iền"
      ],
      [
        "ng",
        "ốc"
      ],
      [
        "Gi",
        "ống"
      ],
      [
        "d",
        "ịu"
      ],
      [
        "l",
        "ộ"
      ],
      [
        "m",
        "ô"
      ],
      [
        "h",
        "àn"
      ],
      [
        "ph",
        "iên"
      ],
      [
        "tố",
        "c"
      ],
      [
        "đá",
        "o"
      ],
      [
        "g",
        "ó"
      ],
      [
        "ng",
        "ôn"
      ],
      [
        "ch",
        "ỗ"
      ],
      [
        "ặ",
        "n"
      ],
      [
        "ph",
        "im"
      ],
      [
        "t",
        "ầm"
      ],
      [
        "ụ",
        "p"
      ],
      [
        "th",
        "ậm"
      ],
      [
        "r",
        "u"
      ],
      [
        "đ",
        "ảm"
      ],
      [
        "gi",
        "à"
      ],
      [
        "B",
        "ày"
      ],
      [
        "n",
        "uối"
      ],
      [
        "x",
        "in"
      ],
      [
        "uy",
        "ến"
      ],
      [
        "chỉ",
        "nh"
      ],
      [
        "G",
        "ia"
      ],
      [
        "c",
        "ớ"
      ],
      [
        "l",
        "ạ"
      ],
      [
        "l",
        "iền"
      ],
      [
        "gi",
        "ằng"
      ],
      [
        "h",
        "iệp"
      ],
      [
        "n",
        "on"
      ],
      [
        "th",
        "ả"
      ],
      [
        "è",
        "m"
      ],
      [
        "l",
        "iệt"
      ],
      [
        "th",
        "ầm"
      ],
      [
        "ho",
        "ay"
      ],
      [
        "d",
        "è"
      ],
      [
        "đ",
        "ắn"
      ],
      [
        "ể",
        "n"
      ],
      [
        "lo",
        "ay"
      ],
      [
        "V",
        "à"
      ],
      [
        "Đ",
        "ặt"
      ],
      [
        "k",
        "ìm"
      ],
      [
        "c",
        "ụ"
      ],
      [
        "c",
        "an"
      ],
      [
        "d",
        "ây"
      ],
      [
        "t",
        "ụ"
      ],
      [
        "chuy",
        "ển"
      ],
      [
        "m",
        "ã"
      ],
      [
        "v",
        "ương"
      ],
      [
        "Đ",
        "ến"
      ],
      [
        "L",
        "úc"
      ],
      [
        "h",
        "iểm"
      ],
      [
        "h",
        "ề"
      ],
      [
        "ó",
        "ng"
      ],
      [
        "ế",
        "m"
      ],
      [
        "nh",
        "àm"
      ],
      [
        "b",
        "ộ"
      ],
      [
        "x",
        "o"
      ],
      [
        "gi",
        "ỏi"
      ],
      [
        "cá",
        "nh"
      ],
      [
        "Ng",
        "h"
      ],
      [
        "v",
        "ân"
      ],
      [
        "ch",
        "ìm"
      ],
      [
        "h",
        "en"
      ],
      [
        "r",
        "ời"
      ],
      [
        "k",
        "ín"
      ],
      [
        "r",
        "út"
      ],
      [
        "h",
        "ỏng"
      ],
      [
        "n",
        "ứt"
      ],
      [
        "é",
        "m"
      ],
      [
        "ớ",
        "p"
      ],
      [
        "quá",
        "n"
      ],
      [
        "n",
        "ổi"
      ],
      [
        "k",
        "èm"
      ],
      [
        "đ",
        "ột"
      ],
      [
        "đ",
        "ớn"
      ],
      [
        "h",
        "ấp"
      ],
      [
        "Nh",
        "ư"
      ],
      [
        "x",
        "óa"
      ],
      [
        "ị",
        "p"
      ],
      [
        "M",
        "ệt"
      ],
      [
        "s",
        "h"
      ],
      [
        "k",
        "ém"
      ],
      [
        "Ngh",
        "e"
      ],
      [
        "tr",
        "ường"
      ],
      [
        "r",
        "ễ"
      ],
      [
        "t",
        "ồi"
      ],
      [
        "ô",
        "m"
      ],
      [
        "s",
        "ang"
      ],
      [
        "ch",
        "ừng"
      ],
      [
        "t",
        "ị"
      ],
      [
        "h",
        "âm"
      ],
      [
        "v",
        "ăn"
      ],
      [
        "i",
        "êu"
      ],
      [
        "ch",
        "ênh"
      ],
      [
        "d",
        "ường"
      ],
      [
        "h",
        "ậu"
      ],
      [
        "G",
        "hen"
      ],
      [
        "đó",
        "n"
      ],
      [
        "g",
        "ồng"
      ],
      [
        "kh",
        "ích"
      ],
      [
        "s",
        "ốc"
      ],
      [
        "N",
        "iềm"
      ],
      [
        "mó",
        "n"
      ],
      [
        "c",
        "ấm"
      ],
      [
        "kh",
        "uyên"
      ],
      [
        "x",
        "inh"
      ],
      [
        "nhị",
        "n"
      ],
      [
        "t",
        "ên"
      ],
      [
        "gi",
        "ếm"
      ],
      [
        "r",
        "ạn"
      ],
      [
        "giá",
        "o"
      ],
      [
        "c",
        "a"
      ],
      [
        "x",
        "ong"
      ],
      [
        "ẫ",
        "m"
      ],
      [
        "ng",
        "ã"
      ],
      [
        "mó",
        "c"
      ],
      [
        "ru",
        "sh"
      ],
      [
        "qu",
        "ản"
      ],
      [
        "ph",
        "án"
      ],
      [
        "b",
        "ề"
      ],
      [
        "t",
        "ử"
      ],
      [
        "m",
        "ò"
      ],
      [
        "Ch",
        "ữa"
      ],
      [
        "c",
        "ao"
      ],
      [
        "Gi",
        "ữ"
      ],
      [
        "Tr",
        "ước"
      ],
      [
        "T",
        "ừ"
      ],
      [
        "th",
        "ính"
      ],
      [
        "c",
        "ười"
      ],
      [
        "th",
        "ở"
      ],
      [
        "th",
        "am"
      ],
      [
        "đ",
        "ùa"
      ],
      [
        "ngh",
        "ị"
      ],
      [
        "c",
        "rush"
      ],
      [
        "n",
        "an"
      ],
      [
        "m",
        "át"
      ],
      [
        "kh",
        "ủng"
      ],
      [
        "Ch",
        "ỉ"
      ],
      [
        "k",
        "ịch"
      ],
      [
        "ch",
        "iều"
      ],
      [
        "đ",
        "ương"
      ],
      [
        "nh",
        "ấn"
      ],
      [
        "h",
        "ận"
      ],
      [
        "Th",
        "a"
      ],
      [
        "h",
        "ạ"
      ],
      [
        "ử",
        "i"
      ],
      [
        "t",
        "ối"
      ],
      [
        "v",
        "ụ"
      ],
      [
        "gi",
        "ả"
      ],
      [
        "R",
        "ồi"
      ],
      [
        "X",
        "ây"
      ],
      [
        "s",
        "ụp"
      ],
      [
        "u",
        "ôn"
      ],
      [
        "nh",
        "ật"
      ],
      [
        "qu",
        "à"
      ],
      [
        "l",
        "ớp"
      ],
      [
        "t",
        "ỉnh"
      ],
      [
        "D",
        "ạo"
      ],
      [
        "g",
        "ửi"
      ],
      [
        "th",
        "ấp"
      ],
      [
        "n",
        "ắng"
      ],
      [
        "m",
        "iền"
      ],
      [
        "tho",
        "ảng"
      ],
      [
        "H",
        "y"
      ],
      [
        "S",
        "ao"
      ],
      [
        "cố",
        "t"
      ],
      [
        "T",
        "ự"
      ],
      [
        "d",
        "ỗi"
      ],
      [
        "khí",
        "a"
      ],
      [
        "nh",
        "ở"
      ],
      [
        "l",
        "õi"
      ],
      [
        "s",
        "ong"
      ],
      [
        "T",
        "in"
      ],
      [
        "b",
        "ại"
      ],
      [
        "h",
        "an"
      ],
      [
        "Họ",
        "c"
      ],
      [
        "th",
        "ủ"
      ],
      [
        "tr",
        "ích"
      ],
      [
        "b",
        "áo"
      ],
      [
        ")",
        ","
      ],
      [
        "K",
        "iểu"
      ],
      [
        "d",
        "ữ"
      ],
      [
        "l",
        "l"
      ],
      [
        "c",
        "ử"
      ],
      [
        "á",
        "y"
      ],
      [
        "đ",
        "ồ"
      ],
      [
        "H",
        "ay"
      ],
      [
        "n",
        "ội"
      ],
      [
        "khó",
        "c"
      ],
      [
        "l",
        "ộn"
      ],
      [
        "ca",
        "ll"
      ],
      [
        "đ",
        "ẽ"
      ],
      [
        "b",
        "iểu"
      ],
      [
        "b",
        "é"
      ],
      [
        "b",
        "ời"
      ],
      [
        "b",
        "ật"
      ],
      [
        "ồ",
        "m"
      ],
      [
        "g",
        "ồm"
      ],
      [
        "kh",
        "uyến"
      ],
      [
        "ng",
        "uy"
      ],
      [
        "né",
        "t"
      ],
      [
        "t",
        "úng"
      ],
      [
        "đ",
        "ại"
      ],
      [
        "B",
        "an"
      ],
      [
        "d",
        "anh"
      ],
      [
        "t",
        "iềm"
      ],
      [
        "ế",
        "ch"
      ],
      [
        "m",
        "a"
      ],
      [
        "t",
        "áo"
      ],
      [
        "x",
        "ưa"
      ],
      [
        "ng",
        "ùng"
      ],
      [
        "tr",
        "ầm"
      ],
      [
        "ngh",
        "ếch"
      ],
      [
        "th",
        "ắt"
      ],
      [
        "A",
        "nh"
      ],
      [
        "đ",
        "ứt"
      ],
      [
        "tr",
        "a"
      ],
      [
        "ho",
        "ang"
      ],
      [
        "d",
        "ò"
      ],
      [
        "so",
        "i"
      ],
      [
        "l",
        "inh"
      ],
      [
        "Gi",
        "ải"
      ],
      [
        "Nh",
        "iều"
      ],
      [
        "m",
        "ạo"
      ],
      [
        "đ",
        "iệu"
      ],
      [
        "th",
        "ổ"
      ],
      [
        "L",
        "ần"
      ],
      [
        "c",
        "ú"
      ],
      [
        "v",
        "ai"
      ],
      [
        "đ",
        "ạt"
      ],
      [
        "đ",
        "ạo"
      ],
      [
        "h",
        "ờ"
      ],
      [
        "l",
        "ảng"
      ],
      [
        "x",
        "u"
      ],
      [
        "gh",
        "i"
      ],
      [
        "Tr",
        "ò"
      ],
      [
        "d",
        "ồn"
      ],
      [
        "đ",
        "ọc"
      ],
      [
        "Nh",
        "ớ"
      ],
      [
        "tr",
        "ao"
      ],
      [
        "C",
        "òn"
      ],
      [
        "n",
        "ồng"
      ],
      [
        "c",
        "ận"
      ],
      [
        "th",
        "ận"
      ],
      [
        "M",
        "âu"
      ],
      [
        "d",
        "ùng"
      ],
      [
        "tố",
        "n"
      ],
      [
        "s",
        "ta"
      ],
      [
        "t",
        "iết"
      ],
      [
        "kho",
        "át"
      ],
      [
        "l",
        "ưng"
      ],
      [
        "d",
        "ục"
      ],
      [
        "đ",
        "ức"
      ],
      [
        "th",
        "ờ"
      ],
      [
        "L",
        "òng"
      ],
      [
        "th",
        "ỉnh"
      ],
      [
        "t",
        "ò"
      ],
      [
        "ẩ",
        "y"
      ],
      [
        "l",
        "ao"
      ],
      [
        "ch",
        "ạnh"
      ],
      [
        "gó",
        "p"
      ],
      [
        "B",
        "ọn"
      ],
      [
        "T",
        "ổn"
      ],
      [
        "ng",
        "ủ"
      ],
      [
        "tho",
        "ái"
      ],
      [
        "s",
        "ử"
      ],
      [
        "à",
        "u"
      ],
      [
        "l",
        "i"
      ],
      [
        "đ",
        "ắm"
      ],
      [
        "sợ",
        "i"
      ],
      [
        "H",
        "ành"
      ],
      [
        "m",
        "ù"
      ],
      [
        "ng",
        "ược"
      ],
      [
        "nh",
        "ói"
      ],
      [
        "đ",
        "ấu"
      ],
      [
        "đ",
        "ẩy"
      ],
      [
        "ch",
        "ặt"
      ],
      [
        "l",
        "ệ"
      ],
      [
        "t",
        "àu"
      ],
      [
        "t",
        "ả"
      ],
      [
        "c",
        "ất"
      ],
      [
        "s",
        "iêu"
      ],
      [
        "ng",
        "ây"
      ],
      [
        "th",
        "ơ"
      ],
      [
        "c",
        "ụt"
      ],
      [
        "đ",
        "è"
      ],
      [
        "th",
        "ao"
      ],
      [
        "h",
        "ao"
      ],
      [
        "â",
        "ng"
      ],
      [
        "m",
        "ông"
      ],
      [
        "ch",
        "ấm"
      ],
      [
        "k",
        "e"
      ],
      [
        "mã",
        "nh"
      ],
      [
        "g",
        "ượng"
      ],
      [
        "h",
        "ã"
      ],
      [
        "gì",
        "n"
      ],
      [
        "V",
        "ừa"
      ],
      [
        "d",
        "ịp"
      ],
      [
        "th",
        "ưa"
      ],
      [
        "v",
        "ốn"
      ],
      [
        "C",
        "ố"
      ],
      [
        "th",
        "i"
      ],
      [
        "L",
        "ời"
      ],
      [
        "th",
        "uyết"
      ],
      [
        "B",
        "u"
      ],
      [
        "m",
        "ách"
      ],
      [
        "xo",
        "a"
      ],
      [
        "d",
        "ạng"
      ],
      [
        "thu",
        "a"
      ],
      [
        "tr",
        "uyền"
      ],
      [
        "ph",
        "ối"
      ],
      [
        "ph",
        "ạm"
      ],
      [
        "ượ",
        "n"
      ],
      [
        "ng",
        "ần"
      ],
      [
        "d",
        "ưỡng"
      ],
      [
        "nh",
        "át"
      ],
      [
        "ch",
        "ạm"
      ],
      [
        "uy",
        "ện"
      ],
      [
        "d",
        "ao"
      ],
      [
        "l",
        "ượn"
      ],
      [
        "ẫ",
        "u"
      ],
      [
        "”",
        "."
      ],
      [
        "kh",
        "ách"
      ],
      [
        "gó",
        "c"
      ],
      [
        "s",
        "ửa"
      ],
      [
        "nh",
        "à"
      ],
      [
        "b",
        "ăng"
      ],
      [
        "m",
        "ẫu"
      ],
      [
        "o",
        "l"
      ],
      [
        "đ",
        "a"
      ],
      [
        "R",
        "anh"
      ],
      [
        "d",
        "ạy"
      ],
      [
        "s",
        "ay"
      ],
      [
        "ẩ",
        "m"
      ],
      [
        "c",
        "k"
      ],
      [
        "d",
        "ậy"
      ],
      [
        "kh",
        "en"
      ],
      [
        "tr",
        "ốn"
      ],
      [
        "c",
        "ộng"
      ],
      [
        "c",
        "ỏi"
      ],
      [
        "R",
        "ất"
      ],
      [
        "l",
        "ương"
      ],
      [
        "tr",
        "ai"
      ],
      [
        "nhị",
        "p"
      ],
      [
        "d",
        "ẫm"
      ],
      [
        "s",
        "ách"
      ],
      [
        "ph",
        "óng"
      ],
      [
        "lệ",
        "ch"
      ],
      [
        "ph",
        "ó"
      ],
      [
        "Gi",
        "á"
      ],
      [
        "L",
        "uôn"
      ],
      [
        "l",
        "ưu"
      ],
      [
        "b",
        "ênh"
      ],
      [
        "to",
        "án"
      ],
      [
        "...",
        ")."
      ],
      [
        "t",
        "ăng"
      ],
      [
        "th",
        "ư"
      ],
      [
        "C",
        "ân"
      ],
      [
        "g",
        "ớm"
      ],
      [
        "h",
        "ững"
      ],
      [
        "ã",
        "n"
      ],
      [
        "đ",
        "êm"
      ],
      [
        "b",
        "àn"
      ],
      [
        "m",
        "ải"
      ],
      [
        "Đ",
        "ối"
      ],
      [
        "lo",
        "w"
      ],
      [
        "Đ",
        "ơn"
      ],
      [
        "th",
        "ốn"
      ],
      [
        "c",
        "ay"
      ],
      [
        "f",
        "ol"
      ],
      [
        "v",
        "ác"
      ],
      [
        "v",
        "ênh"
      ],
      [
        "fol",
        "low"
      ],
      [
        "b",
        "ấp"
      ],
      [
        "ấ",
        "c"
      ],
      [
        "thủ",
        "y"
      ],
      [
        "ph",
        "ong"
      ],
      [
        "nh",
        "ập"
      ],
      [
        "li",
        "ke"
      ],
      [
        "ngh",
        "iệt"
      ],
      [
        "x",
        "ao"
      ],
      [
        "th",
        "ăng"
      ],
      [
        "Đ",
        "ã"
      ],
      [
        "N",
        "ày"
      ],
      [
        "u",
        "n"
      ],
      [
        "quá",
        "ng"
      ],
      [
        "r",
        "ộng"
      ],
      [
        "V",
        "ẫn"
      ],
      [
        "m",
        "ôi"
      ],
      [
        "N",
        "ên"
      ],
      [
        "T",
        "iền"
      ],
      [
        "k",
        "ịp"
      ],
      [
        "th",
        "iệu"
      ],
      [
        "m",
        "ớ"
      ],
      [
        "n",
        "ay"
      ],
      [
        "v",
        "ứt"
      ],
      [
        "d",
        "ội"
      ],
      [
        "ng",
        "ưỡng"
      ],
      [
        "ph",
        "ẩm"
      ],
      [
        "x",
        "âm"
      ],
      [
        "g",
        "ạt"
      ],
      [
        "th",
        "ắng"
      ],
      [
        "ch",
        "ín"
      ],
      [
        "cứ",
        "u"
      ],
      [
        "Th",
        "ật"
      ],
      [
        "h",
        "ời"
      ],
      [
        "v",
        "e"
      ],
      [
        "hợ",
        "t"
      ],
      [
        "gi",
        "ó"
      ],
      [
        "Kh",
        "ó"
      ],
      [
        "g",
        "am"
      ],
      [
        "h",
        "ẹp"
      ],
      [
        "t",
        "ắt"
      ],
      [
        "ch",
        "óng"
      ],
      [
        "gi",
        "ang"
      ],
      [
        "D",
        "ũng"
      ],
      [
        "tr",
        "ận"
      ],
      [
        "v",
        "ực"
      ],
      [
        "đ",
        "ằng"
      ],
      [
        "mà",
        "u"
      ],
      [
        "h",
        "ít"
      ],
      [
        "xa",
        "nh"
      ],
      [
        "S",
        "ức"
      ],
      [
        "T",
        "ao"
      ],
      [
        "Ch",
        "ấp"
      ],
      [
        "v",
        "ơi"
      ],
      [
        "th",
        "iệp"
      ],
      [
        "H",
        "iểu"
      ],
      [
        "ng",
        "õ"
      ],
      [
        "Tr",
        "ải"
      ],
      [
        "x",
        "ói"
      ],
      [
        "g",
        "ắt"
      ],
      [
        "ngu",
        "ôi"
      ],
      [
        "R",
        "ằng"
      ],
      [
        "r",
        "ắc"
      ],
      [
        "gi",
        "ấc"
      ],
      [
        "đè",
        "n"
      ],
      [
        "gam",
        "e"
      ],
      [
        "ch",
        "ết"
      ],
      [
        "Nh",
        "ận"
      ],
      [
        "hã",
        "o"
      ],
      [
        "tr",
        "êu"
      ],
      [
        "r",
        "ảnh"
      ],
      [
        "v",
        "ờ"
      ],
      [
        "ú",
        "i"
      ],
      [
        "ch",
        "áy"
      ],
      [
        "ph",
        "ật"
      ],
      [
        "Th",
        "ế"
      ],
      [
        "h",
        "uyền"
      ],
      [
        "l",
        "iều"
      ],
      [
        "kh",
        "e"
      ],
      [
        "iế",
        "c"
      ],
      [
        "l",
        "ẻ"
      ],
      [
        "l",
        "ấn"
      ],
      [
        "kh",
        "ắt"
      ],
      [
        "C",
        "ãi"
      ],
      [
        "d",
        "ọ"
      ],
      [
        "m",
        "ói"
      ],
      [
        "vã",
        "n"
      ],
      [
        "dọ",
        "a"
      ],
      [
        "un",
        "follow"
      ],
      [
        "K",
        "ết"
      ],
      [
        "b",
        "ộc"
      ],
      [
        "ú",
        "n"
      ],
      [
        "ẫ",
        "y"
      ],
      [
        "ch",
        "ặn"
      ],
      [
        "o",
        "ve"
      ],
      [
        "Th",
        "ảo"
      ],
      [
        "C",
        "ách"
      ],
      [
        "B",
        "ây"
      ],
      [
        "t",
        "ái"
      ],
      [
        "ó",
        "m"
      ],
      [
        "đ",
        "ập"
      ],
      [
        "ố",
        "t"
      ],
      [
        "d",
        "ưng"
      ],
      [
        "t",
        "án"
      ],
      [
        "c",
        "ơn"
      ],
      [
        "đ",
        "ẳng"
      ],
      [
        "m",
        "ộ"
      ],
      [
        "ng",
        "ẫm"
      ],
      [
        "?",
        "”."
      ],
      [
        "n",
        "ở"
      ],
      [
        "kh",
        "ẳng"
      ],
      [
        "k",
        "iệm"
      ],
      [
        "m",
        "ộng"
      ],
      [
        "th",
        "ước"
      ],
      [
        "qu",
        "ặn"
      ],
      [
        "d",
        "u"
      ],
      [
        "nh",
        "óm"
      ],
      [
        "ch",
        "iếc"
      ],
      [
        "T",
        "ranh"
      ],
      [
        "b",
        "ổ"
      ],
      [
        "L",
        "ý"
      ],
      [
        "v",
        "ò"
      ],
      [
        "nh",
        "ờ"
      ],
      [
        "mà",
        "y"
      ],
      [
        "g",
        "ạo"
      ],
      [
        "ch",
        "ê"
      ],
      [
        "vụ",
        "n"
      ],
      [
        "H",
        "ỏi"
      ],
      [
        "I",
        "m"
      ],
      [
        "õ",
        "m"
      ],
      [
        "nh",
        "õm"
      ],
      [
        "m",
        "ặc"
      ],
      [
        "h",
        "ồ"
      ],
      [
        "c",
        "ây"
      ],
      [
        "k",
        "iện"
      ],
      [
        "nh",
        "ạc"
      ],
      [
        "ngo",
        "ai"
      ],
      [
        "h",
        "át"
      ],
      [
        "r",
        "e"
      ],
      [
        "ẽ",
        "o"
      ],
      [
        "nh",
        "ẽo"
      ],
      [
        "ho",
        "ãn"
      ],
      [
        "tu",
        "s"
      ],
      [
        "sta",
        "tus"
      ],
      [
        "b",
        "ê"
      ],
      [
        "b",
        "ỗng"
      ],
      [
        "r",
        "ãi"
      ],
      [
        "tr",
        "ấn"
      ],
      [
        "ngu",
        "ội"
      ],
      [
        "d",
        "òng"
      ],
      [
        "m",
        "ừng"
      ],
      [
        "nh",
        "ãng"
      ],
      [
        "th",
        "ị"
      ],
      [
        "tu",
        "ần"
      ],
      [
        "ph",
        "ú"
      ],
      [
        "l",
        "ứa"
      ],
      [
        "Đ",
        "au"
      ],
      [
        "Bu",
        "ông"
      ],
      [
        "C",
        "ần"
      ],
      [
        "X",
        "em"
      ],
      [
        "g",
        "ái"
      ],
      [
        "Gi",
        "ai"
      ],
      [
        "Ch",
        "úng"
      ],
      [
        "ví",
        "u"
      ],
      [
        "m",
        "úi"
      ],
      [
        "ụ",
        "ng"
      ],
      [
        "B",
        "ố"
      ],
      [
        "b",
        "ấy"
      ],
      [
        "s",
        "ừng"
      ],
      [
        "gi",
        "ục"
      ],
      [
        "ướ",
        "t"
      ],
      [
        "c",
        "ắm"
      ],
      [
        "ng",
        "ủi"
      ],
      [
        "kh",
        "ép"
      ],
      [
        "Ch",
        "uyện"
      ],
      [
        "ưỡ",
        "i"
      ],
      [
        "l",
        "ưỡi"
      ],
      [
        "m",
        "ove"
      ],
      [
        "ch",
        "ụp"
      ],
      [
        "đu",
        "a"
      ],
      [
        "h",
        "iển"
      ],
      [
        "ủ",
        "y"
      ],
      [
        "tr",
        "ông"
      ],
      [
        "ph",
        "ố"
      ],
      [
        "Ng",
        "ại"
      ],
      [
        "l",
        "ướt"
      ],
      [
        "gi",
        "ấy"
      ],
      [
        "lu",
        "i"
      ],
      [
        "h",
        "ủy"
      ],
      [
        "o",
        "f"
      ],
      [
        "t",
        "ặng"
      ],
      [
        "ụ",
        "y"
      ],
      [
        "M",
        "ất"
      ],
      [
        "b",
        "ai"
      ],
      [
        "k",
        "iềm"
      ],
      [
        "l",
        "ọc"
      ],
      [
        "Đ",
        "ộc"
      ],
      [
        "tr",
        "ộn"
      ],
      [
        "ng",
        "ọn"
      ],
      [
        "th",
        "ừa"
      ],
      [
        "l",
        "ượt"
      ],
      [
        "s",
        "út"
      ],
      [
        "ch",
        "ồng"
      ],
      [
        "b",
        "âng"
      ],
      [
        "ch",
        "iếm"
      ],
      [
        "iế",
        "p"
      ],
      [
        "ươ",
        "i"
      ],
      [
        "ngh",
        "ẹt"
      ],
      [
        "c",
        "ấp"
      ],
      [
        "r",
        "ủ"
      ],
      [
        "of",
        "f"
      ],
      [
        "l",
        "ụy"
      ],
      [
        "v",
        "ấp"
      ],
      [
        "kh",
        "ơi"
      ],
      [
        "ho",
        "a"
      ],
      [
        "d",
        "ọn"
      ],
      [
        "t",
        "ươi"
      ],
      [
        "ch",
        "ăng"
      ],
      [
        "l",
        "e"
      ],
      [
        "v",
        "ơ"
      ],
      [
        "é",
        "t"
      ],
      [
        "C",
        "àng"
      ],
      [
        "V",
        "ấn"
      ],
      [
        "ph",
        "ận"
      ],
      [
        "m",
        "ực"
      ],
      [
        "o",
        "án"
      ],
      [
        "m",
        "ưa"
      ],
      [
        "n",
        "ửa"
      ],
      [
        "x",
        "áo"
      ],
      [
        "qu",
        "ơ"
      ],
      [
        "gi",
        "ết"
      ],
      [
        "tr",
        "iệt"
      ],
      [
        "hỗ",
        "n"
      ],
      [
        "K",
        "inh"
      ],
      [
        "ph",
        "ủ"
      ],
      [
        "c",
        "ường"
      ],
      [
        "g",
        "ương"
      ],
      [
        "ng",
        "ắt"
      ],
      [
        "th",
        "áng"
      ],
      [
        "kh",
        "ởi"
      ],
      [
        "b",
        "ầu"
      ],
      [
        "d",
        "a"
      ],
      [
        "kh",
        "uất"
      ],
      [
        "lo",
        "ck"
      ],
      [
        "...",
        "'"
      ],
      [
        "b",
        "ù"
      ],
      [
        "l",
        "y"
      ],
      [
        "t",
        "ật"
      ],
      [
        "x",
        "e"
      ],
      [
        "gi",
        "ày"
      ],
      [
        "C",
        "uộc"
      ],
      [
        "g",
        "ấp"
      ],
      [
        "n",
        "ỡ"
      ],
      [
        "Đ",
        "úng"
      ],
      [
        "Ch",
        "iến"
      ],
      [
        "\"",
        "."
      ],
      [
        "b",
        "lock"
      ],
      [
        "h",
        "i"
      ],
      [
        "l",
        "ờ"
      ],
      [
        "t",
        "ù"
      ],
      [
        "kh",
        "u"
      ],
      [
        "kh",
        "uôn"
      ],
      [
        "ph",
        "ơi"
      ],
      [
        "ti",
        "on"
      ],
      [
        "bó",
        "p"
      ],
      [
        "L",
        "ên"
      ],
      [
        "T",
        "ần"
      ],
      [
        "h",
        "iếm"
      ],
      [
        "tr",
        "ôi"
      ],
      [
        "ch",
        "ông"
      ],
      [
        "só",
        "ng"
      ],
      [
        "V",
        "ì"
      ],
      [
        "c",
        "ạn"
      ],
      [
        "u",
        "ồng"
      ],
      [
        "l",
        "ún"
      ],
      [
        "bã",
        "o"
      ],
      [
        "mã",
        "n"
      ],
      [
        "xo",
        "ay"
      ],
      [
        "v",
        "ỏ"
      ],
      [
        "qu",
        "ãng"
      ],
      [
        "ph",
        "út"
      ],
      [
        "ho",
        "s"
      ],
      [
        "Kh",
        "ác"
      ],
      [
        "T",
        "ra"
      ],
      [
        "b",
        "ồn"
      ],
      [
        "t",
        "ẻ"
      ],
      [
        "ch",
        "ồn"
      ],
      [
        "đá",
        "m"
      ],
      [
        "độ",
        "n"
      ],
      [
        "Th",
        "iếu"
      ],
      [
        "Tra",
        "o"
      ],
      [
        "c",
        "ập"
      ],
      [
        "d",
        "ẹp"
      ],
      [
        "h",
        "ằng"
      ],
      [
        "t",
        "ao"
      ],
      [
        "ngh",
        "iện"
      ],
      [
        "D",
        "õi"
      ],
      [
        "ng",
        "ỏ"
      ],
      [
        "c",
        "ướ"
      ],
      [
        "d",
        "ậm"
      ],
      [
        "gh",
        "im"
      ],
      [
        "cướ",
        "p"
      ],
      [
        "v",
        "ẽ"
      ],
      [
        "ộ",
        "m"
      ],
      [
        "B",
        "ất"
      ],
      [
        "S",
        "ống"
      ],
      [
        "nh",
        "iêu"
      ],
      [
        "che",
        "ck"
      ],
      [
        "Bu",
        "ồn"
      ],
      [
        "x",
        "en"
      ],
      [
        "tr",
        "ộm"
      ],
      [
        "b",
        "ữa"
      ],
      [
        "g",
        "ay"
      ],
      [
        "s",
        "ung"
      ],
      [
        "Ho",
        "àn"
      ],
      [
        "d",
        "uyên"
      ],
      [
        "s",
        "ứt"
      ],
      [
        "đ",
        "ặn"
      ],
      [
        "g",
        "hos"
      ],
      [
        "ch",
        "ào"
      ],
      [
        "tho",
        "áng"
      ],
      [
        "thỏ",
        "m"
      ],
      [
        "b",
        "ụng"
      ],
      [
        "d",
        "ị"
      ],
      [
        "Í",
        "t"
      ],
      [
        "chuy",
        "ến"
      ],
      [
        "M",
        "ở"
      ],
      [
        "d",
        "iếm"
      ],
      [
        "tù",
        "y"
      ],
      [
        "b",
        "o"
      ],
      [
        "b",
        "ẫy"
      ],
      [
        "m",
        "iễn"
      ],
      [
        "n",
        "ắm"
      ],
      [
        "t",
        "í"
      ],
      [
        "v",
        "ướng"
      ],
      [
        "nh",
        "o"
      ],
      [
        "d",
        "ặt"
      ],
      [
        "n",
        "út"
      ],
      [
        "đ",
        "ỗi"
      ],
      [
        "L",
        "én"
      ],
      [
        "ù",
        "n"
      ],
      [
        "ch",
        "ùn"
      ],
      [
        "Ng",
        "o"
      ],
      [
        "h",
        "ồng"
      ],
      [
        "l",
        "a"
      ],
      [
        "t",
        "ải"
      ],
      [
        "G",
        "ần"
      ],
      [
        "T",
        "ạm"
      ],
      [
        "m",
        "ây"
      ],
      [
        "m",
        "ốc"
      ],
      [
        "đ",
        "e"
      ],
      [
        "kh",
        "ái"
      ],
      [
        "th",
        "anh"
      ],
      [
        "kh",
        "úc"
      ],
      [
        "kho",
        "e"
      ],
      [
        "sta",
        "l"
      ],
      [
        "m",
        "u"
      ],
      [
        "tr",
        "ặc"
      ],
      [
        "tr",
        "ục"
      ],
      [
        "d",
        "ĩ"
      ],
      [
        "x",
        "íu"
      ],
      [
        "ch",
        "úc"
      ],
      [
        "T",
        "hành"
      ],
      [
        "m",
        "ến"
      ],
      [
        "m",
        "uối"
      ],
      [
        "s",
        "tr"
      ],
      [
        "v",
        "ợ"
      ],
      [
        "ch",
        "ọc"
      ],
      [
        "tr",
        "i"
      ],
      [
        "gi",
        "ọng"
      ],
      [
        "l",
        "ăng"
      ],
      [
        "ng",
        "hệ"
      ],
      [
        "ti",
        "ng"
      ],
      [
        "hờ",
        "n"
      ],
      [
        "c",
        "ư"
      ],
      [
        "c",
        "uồng"
      ],
      [
        "m",
        "ề"
      ],
      [
        "thi",
        "u"
      ],
      [
        "mề",
        "m"
      ],
      [
        "c",
        "ột"
      ],
      [
        "c",
        "ung"
      ],
      [
        "ở",
        "n"
      ],
      [
        "xo",
        "áy"
      ],
      [
        "D",
        "ường"
      ],
      [
        "T",
        "ạo"
      ],
      [
        "d",
        "ai"
      ],
      [
        "tự",
        "a"
      ],
      [
        "Ch",
        "ứng"
      ],
      [
        "d",
        "ẳng"
      ],
      [
        "m",
        "m"
      ],
      [
        "th",
        "uyền"
      ],
      [
        "như",
        "ợ"
      ],
      [
        "lo",
        "ại"
      ],
      [
        "Kh",
        "uyến"
      ],
      [
        "Th",
        "ường"
      ],
      [
        "hã",
        "m"
      ],
      [
        "h",
        "iếu"
      ],
      [
        "s",
        "ạn"
      ],
      [
        "u",
        "i"
      ],
      [
        "đ",
        "ông"
      ],
      [
        "tr",
        "ói"
      ],
      [
        "\"",
        ","
      ],
      [
        "b",
        "ùng"
      ],
      [
        "h",
        "ữ"
      ],
      [
        "k",
        "ính"
      ],
      [
        "n",
        "ạ"
      ],
      [
        "Nh",
        "ấn"
      ],
      [
        "hữ",
        "u"
      ],
      [
        "C",
        "họ"
      ],
      [
        "l",
        "uyện"
      ],
      [
        "v",
        "ạch"
      ],
      [
        "Chọ",
        "n"
      ],
      [
        "r",
        "è"
      ],
      [
        "th",
        "uố"
      ],
      [
        "cá",
        "u"
      ],
      [
        "thuố",
        "c"
      ],
      [
        "l",
        "ĩnh"
      ],
      [
        "s",
        "ỏi"
      ],
      [
        "ĩ",
        "u"
      ],
      [
        "nh",
        "út"
      ],
      [
        "th",
        "iểu"
      ],
      [
        "tr",
        "ĩu"
      ],
      [
        "M",
        "ập"
      ],
      [
        "g",
        "ò"
      ],
      [
        "h",
        "ổ"
      ],
      [
        "h",
        "ôm"
      ],
      [
        "ò",
        "a"
      ],
      [
        "T",
        "ôi"
      ],
      [
        "X",
        "ung"
      ],
      [
        "n",
        "ấu"
      ],
      [
        "x",
        "át"
      ],
      [
        "th",
        "ắp"
      ],
      [
        "g",
        "ăm"
      ],
      [
        "v",
        "ây"
      ],
      [
        "Đ",
        "ứng"
      ],
      [
        "tr",
        "eo"
      ],
      [
        "cứ",
        "a"
      ],
      [
        "L",
        "o"
      ],
      [
        "M",
        "ục"
      ],
      [
        "b",
        "i"
      ],
      [
        "l",
        "ăn"
      ],
      [
        "Ừ",
        "m"
      ],
      [
        "nh",
        "òa"
      ],
      [
        "ph",
        "ỏng"
      ],
      [
        "củ",
        "ng"
      ],
      [
        "h",
        "ạt"
      ],
      [
        "u",
        "ẩn"
      ],
      [
        "đ",
        "ất"
      ],
      [
        "ho",
        "àng"
      ],
      [
        "cứ",
        "ng"
      ],
      [
        "Ch",
        "uẩn"
      ],
      [
        "Ngo",
        "ại"
      ],
      [
        "B",
        "ài"
      ],
      [
        "h",
        "uy"
      ],
      [
        "s",
        "ếp"
      ],
      [
        "t",
        "àn"
      ],
      [
        "t",
        "ăn"
      ],
      [
        "x",
        "uôi"
      ],
      [
        "đ",
        "ồn"
      ],
      [
        "đ",
        "ào"
      ],
      [
        "M",
        "ày"
      ],
      [
        "l",
        "ôi"
      ],
      [
        "s",
        "u"
      ],
      [
        "è",
        "o"
      ],
      [
        "ơ",
        "m"
      ],
      [
        "ỡ",
        "n"
      ],
      [
        "kh",
        "ôn"
      ],
      [
        "gi",
        "ỡn"
      ],
      [
        "Ch",
        "úc"
      ],
      [
        "b",
        "ạo"
      ],
      [
        "d",
        "ày"
      ],
      [
        "l",
        "ưới"
      ],
      [
        "t",
        "ấm"
      ],
      [
        "ã",
        "o"
      ],
      [
        "nh",
        "ầm"
      ],
      [
        "tư",
        "ới"
      ],
      [
        "h",
        "ước"
      ],
      [
        "m",
        "ỏng"
      ],
      [
        "đ",
        "âm"
      ],
      [
        "th",
        "iệt"
      ],
      [
        "ch",
        "ừ"
      ],
      [
        "ph",
        "ô"
      ],
      [
        "kho",
        "ản"
      ],
      [
        "a",
        "c"
      ],
      [
        "k",
        "ích"
      ],
      [
        "ó",
        "c"
      ],
      [
        "Đ",
        "ề"
      ],
      [
        "ng",
        "ợi"
      ],
      [
        "off",
        "line"
      ],
      [
        "R",
        "ối"
      ],
      [
        "V",
        "í"
      ],
      [
        "d",
        "ập"
      ],
      [
        "n",
        "ớp"
      ],
      [
        "n",
        "ơm"
      ],
      [
        "ch",
        "ần"
      ],
      [
        "kh",
        "át"
      ],
      [
        "B",
        "ước"
      ],
      [
        "V",
        "òng"
      ],
      [
        "ó",
        "t"
      ],
      [
        "ch",
        "ữ"
      ],
      [
        "ch",
        "ương"
      ],
      [
        "ngh",
        "ề"
      ],
      [
        "lu",
        "ật"
      ],
      [
        "l",
        "ễ"
      ],
      [
        "r",
        "ỗi"
      ],
      [
        "x",
        "ích"
      ],
      [
        "th",
        "ản"
      ],
      [
        "X",
        "a"
      ],
      [
        "b",
        "ậ"
      ],
      [
        "h",
        "ả"
      ],
      [
        "m",
        "iên"
      ],
      [
        "r",
        "ẫy"
      ],
      [
        "tr",
        "ỗi"
      ],
      [
        "nguy",
        "ện"
      ],
      [
        "ghos",
        "ting"
      ],
      [
        "bậ",
        "c"
      ],
      [
        "M",
        "ạnh"
      ],
      [
        "S",
        "uy"
      ],
      [
        "V",
        "ẻ"
      ],
      [
        "g",
        "ặ"
      ],
      [
        "á",
        "u"
      ],
      [
        "nh",
        "ấm"
      ],
      [
        "ch",
        "ai"
      ],
      [
        "kh",
        "iếp"
      ],
      [
        "gặ",
        "m"
      ],
      [
        "g",
        "áo"
      ],
      [
        "h",
        "ầu"
      ],
      [
        "l",
        "uyến"
      ],
      [
        "m",
        "ôn"
      ],
      [
        "r",
        "ẽ"
      ],
      [
        "Đ",
        "i"
      ],
      [
        "ph",
        "ũ"
      ],
      [
        "ph",
        "ớt"
      ],
      [
        "khu",
        "ấy"
      ],
      [
        "B",
        "ảo"
      ],
      [
        "F",
        "riendzone"
      ],
      [
        "U",
        "i"
      ],
      [
        "b",
        "ọc"
      ],
      [
        "d",
        "ỗ"
      ],
      [
        "n",
        "ão"
      ],
      [
        "đ",
        "ắt"
      ],
      [
        "th",
        "à"
      ],
      [
        "kh",
        "ao"
      ],
      [
        "lu",
        "ồng"
      ],
      [
        "b",
        "iện"
      ],
      [
        "c",
        "ai"
      ],
      [
        "l",
        "á"
      ],
      [
        "to",
        "x"
      ],
      [
        "gh",
        "ép"
      ],
      [
        "G",
        "ợi"
      ],
      [
        "R",
        "õ"
      ],
      [
        "n",
        "ụ"
      ],
      [
        "s",
        "ương"
      ],
      [
        "x",
        "ôi"
      ],
      [
        "nà",
        "n"
      ],
      [
        "Nh",
        "ắn"
      ],
      [
        "T",
        "iếp"
      ],
      [
        "c",
        "ược"
      ],
      [
        "v",
        "iễn"
      ],
      [
        "Nh",
        "ắc"
      ],
      [
        "lo",
        "ạn"
      ],
      [
        "ngo",
        "an"
      ],
      [
        "tuy",
        "ến"
      ],
      [
        "...",
        ")"
      ],
      [
        "C",
        "ông"
      ],
      [
        "T",
        "ại"
      ],
      [
        "d",
        "âng"
      ],
      [
        "t",
        "át"
      ],
      [
        "Đ",
        "ang"
      ],
      [
        "lo",
        "i"
      ],
      [
        "su",
        "ông"
      ],
      [
        "n",
        "âng"
      ],
      [
        "x",
        "ạ"
      ],
      [
        "ngo",
        "ặt"
      ],
      [
        "D",
        "uy"
      ],
      [
        "b",
        "ủ"
      ],
      [
        "h",
        "ễ"
      ],
      [
        "r",
        "ứt"
      ],
      [
        "v",
        "ế"
      ],
      [
        "đ",
        "ống"
      ],
      [
        "ch",
        "ứa"
      ],
      [
        "tr",
        "ừ"
      ],
      [
        "ph",
        "àng"
      ],
      [
        "Tr",
        "ung"
      ],
      [
        "Ph",
        "ân"
      ],
      [
        "mu",
        "ộn"
      ],
      [
        "b",
        "ứt"
      ],
      [
        "h",
        "ằn"
      ],
      [
        "l",
        "ồng"
      ],
      [
        "r",
        "ụt"
      ],
      [
        "chu",
        "ỗi"
      ],
      [
        "c",
        "ưới"
      ],
      [
        "d",
        "e"
      ],
      [
        "t",
        "y"
      ],
      [
        "t",
        "ước"
      ],
      [
        "v",
        "ũ"
      ],
      [
        "nh",
        "ún"
      ],
      [
        "tr",
        "ắng"
      ],
      [
        "T",
        "ương"
      ],
      [
        "l",
        "ường"
      ],
      [
        "s",
        "ập"
      ],
      [
        "Ô",
        "m"
      ],
      [
        "đ",
        "ành"
      ],
      [
        "tự",
        "u"
      ],
      [
        "en",
        "t"
      ],
      [
        "trợ",
        "n"
      ],
      [
        "ru",
        "n"
      ],
      [
        "T",
        "ho"
      ],
      [
        "d",
        "ra"
      ],
      [
        "d",
        "áng"
      ],
      [
        "e",
        "s"
      ],
      [
        "g",
        "õ"
      ],
      [
        "h",
        "uyết"
      ],
      [
        "ợ",
        "t"
      ],
      [
        "gi",
        "ã"
      ],
      [
        "gh",
        "ét"
      ],
      [
        "bủ",
        "a"
      ],
      [
        "dra",
        "ma"
      ],
      [
        "f",
        "la"
      ],
      [
        "l",
        "ẩn"
      ],
      [
        "p",
        "tion"
      ],
      [
        "è",
        "n"
      ],
      [
        "đ",
        "à"
      ],
      [
        "đ",
        "ắng"
      ],
      [
        "th",
        "áo"
      ],
      [
        "gi",
        "ãn"
      ],
      [
        "nhượ",
        "ng"
      ],
      [
        "fla",
        "g"
      ],
      [
        "M",
        "ặc"
      ],
      [
        "V",
        "ề"
      ],
      [
        "c",
        "ầm"
      ],
      [
        "l",
        "ép"
      ],
      [
        "s",
        "ho"
      ],
      [
        "t",
        "iện"
      ],
      [
        "t",
        "ấn"
      ],
      [
        "t",
        "ụt"
      ],
      [
        "kh",
        "iển"
      ],
      [
        "qu",
        "ê"
      ],
      [
        "ph",
        "a"
      ],
      [
        "ph",
        "àn"
      ],
      [
        "cá",
        "o"
      ],
      [
        "Tho",
        "át"
      ],
      [
        "b",
        "ờ"
      ],
      [
        "i",
        "str"
      ],
      [
        "m",
        "ỉ"
      ],
      [
        "ng",
        "ang"
      ],
      [
        "ho",
        "ại"
      ],
      [
        "em",
        "istr"
      ],
      [
        "thu",
        "ật"
      ],
      [
        "ca",
        "ption"
      ],
      [
        "re",
        "d"
      ],
      [
        "stal",
        "k"
      ],
      [
        "emistr",
        "y"
      ],
      [
        "m",
        "ị"
      ],
      [
        "m",
        "iệ"
      ],
      [
        "m",
        "ảnh"
      ],
      [
        "ự",
        "a"
      ],
      [
        "ng",
        "ầm"
      ],
      [
        "Qu",
        "ên"
      ],
      [
        "Ch",
        "ắc"
      ],
      [
        "co",
        "mm"
      ],
      [
        "ke",
        "r"
      ],
      [
        "ac",
        "e"
      ],
      [
        "miệ",
        "ng"
      ],
      [
        "K",
        "ỷ"
      ],
      [
        "V",
        "ui"
      ],
      [
        "h",
        "é"
      ],
      [
        "h",
        "èn"
      ],
      [
        "v",
        "ẳng"
      ],
      [
        "v",
        "ăng"
      ],
      [
        "v",
        "ĩnh"
      ],
      [
        "ng",
        "ưng"
      ],
      [
        "kh",
        "ô"
      ],
      [
        "tr",
        "út"
      ],
      [
        "nho",
        "áng"
      ],
      [
        "K",
        "iên"
      ],
      [
        "S",
        "ẽ"
      ],
      [
        "d",
[...]
